{"vocab": ["<byte:0>", "<byte:1>", "<byte:2>", "<byte:3>", "<byte:4>", "<byte:5>", "<byte:6>", "<byte:7>", "<byte:8>", "<byte:9>", "<byte:10>", "<byte:11>", "<byte:12>", "<byte:13>", "<byte:14>", "<byte:15>", "<byte:16>", "<byte:17>", "<byte:18>", "<byte:19>", "<byte:20>", "<byte:21>", "<byte:22>", "<byte:23>", "<byte:24>", "<byte:25>", "<byte:26>", "<byte:27>", "<byte:28>", "<byte:29>", "<byte:30>", "<byte:31>", "<byte:32>", "<byte:33>", "<byte:34>", "<byte:35>", "<byte:36>", "<byte:37>", "<byte:38>", "<byte:39>", "<byte:40>", "<byte:41>", "<byte:42>", "<byte:43>", "<byte:44>", "<byte:45>", "<byte:46>", "<byte:47>", "<byte:48>", "<byte:49>", "<byte:50>", "<byte:51>", "<byte:52>", "<byte:53>", "<byte:54>", "<byte:55>", "<byte:56>", "<byte:57>", "<byte:58>", "<byte:59>", "<byte:60>", "<byte:61>", "<byte:62>", "<byte:63>", "<byte:64>", "<byte:65>", "<byte:66>", "<byte:67>", "<byte:68>", "<byte:69>", "<byte:70>", "<byte:71>", "<byte:72>", "<byte:73>", "<byte:74>", "<byte:75>", "<byte:76>", "<byte:77>", "<byte:78>", "<byte:79>", "<byte:80>", "<byte:81>", "<byte:82>", "<byte:83>", "<byte:84>", "<byte:85>", "<byte:86>", "<byte:87>", "<byte:88>", "<byte:89>", "<byte:90>", "<byte:91>", "<byte:92>", "<byte:93>", "<byte:94>", "<byte:95>", "<byte:96>", "<byte:97>", "<byte:98>", "<byte:99>", "<byte:100>", "<byte:101>", "<byte:102>", "<byte:103>", "<byte:104>", "<byte:105>", "<byte:106>", "<byte:107>", "<byte:108>", "<byte:109>", "<byte:110>", "<byte:111>", "<byte:112>", "<byte:113>", "<byte:114>", "<byte:115>", "<byte:116>", "<byte:117>", "<byte:118>", "<byte:119>", "<byte:120>", "<byte:121>", "<byte:122>", "<byte:123>", "<byte:124>", "<byte:125>", "<byte:126>", "<byte:127>", "<byte:128>", "<byte:129>", "<byte:130>", "<byte:131>", "<byte:132>", "<byte:133>", "<byte:134>", "<byte:135>", "<byte:136>", "<byte:137>", "<byte:138>", "<byte:139>", "<byte:140>", "<byte:141>", "<byte:142>", "<byte:143>", "<byte:144>", "<byte:145>", "<byte:146>", "<byte:147>", "<byte:148>", "<byte:149>", "<byte:150>", "<byte:151>", "<byte:152>", "<byte:153>", "<byte:154>", "<byte:155>", "<byte:156>", "<byte:157>", "<byte:158>", "<byte:159>", "<byte:160>", "<byte:161>", "<byte:162>", "<byte:163>", "<byte:164>", "<byte:165>", "<byte:166>", "<byte:167>", "<byte:168>", "<byte:169>", "<byte:170>", "<byte:171>", "<byte:172>", "<byte:173>", "<byte:174>", "<byte:175>", "<byte:176>", "<byte:177>", "<byte:178>", "<byte:179>", "<byte:180>", "<byte:181>", "<byte:182>", "<byte:183>", "<byte:184>", "<byte:185>", "<byte:186>", "<byte:187>", "<byte:188>", "<byte:189>", "<byte:190>", "<byte:191>", "<byte:192>", "<byte:193>", "<byte:194>", "<byte:195>", "<byte:196>", "<byte:197>", "<byte:198>", "<byte:199>", "<byte:200>", "<byte:201>", "<byte:202>", "<byte:203>", "<byte:204>", "<byte:205>", "<byte:206>", "<byte:207>", "<byte:208>", "<byte:209>", "<byte:210>", "<byte:211>", "<byte:212>", "<byte:213>", "<byte:214>", "<byte:215>", "<byte:216>", "<byte:217>", "<byte:218>", "<byte:219>", "<byte:220>", "<byte:221>", "<byte:222>", "<byte:223>", "<byte:224>", "<byte:225>", "<byte:226>", "<byte:227>", "<byte:228>", "<byte:229>", "<byte:230>", "<byte:231>", "<byte:232>", "<byte:233>", "<byte:234>", "<byte:235>", "<byte:236>", "<byte:237>", "<byte:238>", "<byte:239>", "<byte:240>", "<byte:241>", "<byte:242>", "<byte:243>", "<byte:244>", "<byte:245>", "<byte:246>", "<byte:247>", "<byte:248>", "<byte:249>", "<byte:250>", "<byte:251>", "<byte:252>", "<byte:253>", "<byte:254>", "<byte:255>", "\n", " ", "!", "\"", "$", "'", ",", "-", ".", "0", "1", "2", "3", "4", "5", "6", "7", "8", "9", ":", ";", "<", ">", "?", "A", "B", "C", "D", "E", "F", "G", "H", "I", "J", "K", "L", "M", "N", "O", "P", "Q", "R", "S", "T", "U", "V", "W", "X", "Y", "Z", "a", "b", "c", "d", "e", "f", "g", "h", "i", "j", "k", "l", "m", "n", "o", "p", "q", "r", "s", "t", "u", "v", "w", "x", "y", "z", "|", "\u00a1", "\u00ab", "\u00bb", "\u00e1", "\u00e9", "\u00f1", "\u00f3", "\u2013", "\u2014", "\u2018", "\u2019", "\u201c", "\u201d", "\u2026", "he", " t", " a", " s", " w", "nd", " the", "ed", "in", " and", " b", " to", " wa", " h", "re", "it", " f", "ou", "er", " l", " he", " was", " c", " d", " m", " p", " o", "ing", "om", "ar", "ay", "is", " g", "The", "id", "at", "ll", "en", " sa", "ne", " ha", "im", "le", " S", "an", "or", " it", " th", " The", "et", " H", "il", "on", " her", "ir", "ver", "end", " in", " He", " n", "ot", " She", "ld", " e", "ut", "ow", " u", " be", "ck", "ce", " she", " said", "ig", " st", "oo", " so", "pp", " r", "am", " \"", "ke", " y", " of", "ve", "ith", "st", "ked", " his", "very", "ft", " with", " day", "ri", " I", "nt", " pl", "ad", " up", " that", " They", " had", " you", "xt", "ily", "itt", " \n", "el", "ould", " T", "ent", "ext", " on", "oft", "<|", "endoft", "endoftext", "|>", "es", " play", " for", " L", " they", " we", "ittle", "ound", "my", "un", "out", " little", " mom", "ch", " happ", "ly", "ime", " there", "her", " time", "all", " sm", " sh", " very", " li", "ht", " wh", " ne", " re", "ome", "al", " want", " B", "se", " do", "ack", " k", " as", "On", " happy", " big", " an", " but", "Once", "ra", "One", " saw", "riend", "ved", " friend", " loo", " Lily", "irl", "ore", "ake", "ec", "ug", " girl", "ide", " M", " bo", " It", " were", "ill", "ry", " J", " upon", " not", " him", " ex", " lo", "\n\n", " go", " j", "ard", "!\"", ".\"", " out", " sp", "fu", " wanted", " ar", " could", "way", " too", "hen", "ur", " is", " se", "hing", "ind", "ain", " Tim", "art", "ic", " at", " all", " A", "hed", " went", "um", "ful", "iled", "ight", "rom", "ter", " smiled", "lp", " around", " them", " friends", " help", " nam", "oug", "ood", " back", " did", " cl", "ark", "omet", "ss", " asked", " their", " have", "?\"", " fun", " ca", " can", " looked", " boy", " somet", " le", "side", "one", "elt", " start", " al", "ure", " fe", " would", " felt", "op", "ick", " loved", " named", "get", " no", "dd", " One", " are", "ame", "ited", " exc", " man", "ree", "ie", "king", " something", "ice", "ong", " wor", " like", " sc", " bir", " started", "ro", " some", "gether", " ag", " me", " fa", " bird", " ro", " see", " E", " Timmy", "ade", "own", " W", "ag", " away", "pped", " excited", " together", " Ben", " toy", "pl", "ings", " ran", "oud", "ared", " what", " then", " make", "ble", " mu", " home", "You", " la", " ch", "ally", " made", " wal", "qu", "hat", " again", " Tom", ",\"", " from", " park", "as", " found", "ell", " dec", " when", " new", " br", "ous", " co", "if", " who", "ep", "ought", " every", " ot", " get", " put", " But", " other", " sad", " playing", " one", "ile", " pr", "udd", " car", " fl", " decid", " v", " old", " decided", " hug", "bb", "ave", " got", " bu", " say", " good", "ach", " things", "ried", "ny", " D", "ust", " than", "eci", "ouse", " bec", " feel", " down", " find", "udden", " kn", " ke", " sw", " came", "ecial", " bl", " special", "ways", " tree", " ab", "uddenly", "nder", " always", " lot", " scared", " kne", "ue", " po", "ched", " take", "ook", " thought", " F", " int", "our", "ite", " about", "ge", "ant", "ist", " care", " gra", " dad", " gr", " took", " Every", " expl", " didn", " liked", "ened", "fe", "ise", " look", " laug", "fter", " You", " pe", "Lily", "reat", " pa", " ta", " knew", "uck", "ma", " dog", " more", " outside", " your", " ho", "ers", " tw", "ven", " cat", " sk", "ned", "ive", " how", " couldn", " en", " Jo", " my", "ace", " much", "ged", " qu", " sun", "lly", "uc", "ret", "ion", " mo", " into", " never", "by", " tr", "ara", " any", " over", " know", " proud", " Mom", " clo", " lear", " jo", " pu", " str", "ax", " show", "ough", " \u201c", " if", " says", " this", " Jack", " mommy", "hn", " heard", "pt", "ish", "vent", " inside", "ning", "au", " op", "oth", " call", " will", " ad", " fo", "ild", " ball", " house", "ear", " told", "dy", "But", " gave", " hand", " off", " toys", " small", "ving", "sel", "na", "other", "ort", " ra", " just", " wat", " water", "here", " bea", " So", "ntil", "ause", " run", " pick", "They", " com", "ump", " long", " until", " beaut", " room", "ate", "urp", " thanked", " tried", "ady", " because", "sh", "ap", "ank", " lots", " try", " gard", " garden", " played", "etter", " sl", " need", "sed", "ucy", " eat", " by", " even", "ty", " Sam", " beauti", " or", " beautiful", "ink", "self", " hugged", "nna", "em", "iz", "ane", " laughed", " best", " flow", " called", " cu", "ered", " way", " end", "ct", "ine", " bear", " sky", "and", "rent", "imal", " animal", " Max", "lew", " two", "ob", "ia", " pret", " each", " im", "When", " box", " explore", " wo", "It", " dre", "rave", " fast", " don", " His", "He", " lived", " nice", " che", " better", "ess", " Her", "ect", " fam", " advent", "Mom", " kept", "iny", " many", "urpr", " surpr", " both", " P", "Yes", " cle", " smile", "Let", " kind", " jump", " stay", " Sara", " hard", "So", " Then", "are", " C", " come", " fin", "orry", " flew", " feeling", "fore", " rem", " its", " mum", " brave", " gl", " soon", "urt", "What", " still", " fly", " family", " walked", " te", "ised", " Lucy", " And", " adventure", " col", " sto", "igh", "iced", "Th", " love", " From", "led", " learned", " fore", " careful", " before", " fi", "ople", " animals", " place", " con", " sorry", " loud", " ow", " walking", " year", " far", "gry", " under", "ary", "ip", " safe", "ies", " We", "ool", " going", "ied", " imp", " When", "oy", " now", "Tom", " noticed", " people", " Suddenly", " fr", " stopped", "gan", " list", "That", "ase", "illy", " let", " quick", "Jo", " Anna", "Tim", " dan", " del", "bbit", "ished", "joy", " stor", "maz", " three", "thing", "olly", "ious", " amaz", " everyone", " opened", "dded", " ey", "eet", " ide", " wind", "ser", " ma", " John", "ange", " vo", "Suddenly", " war", " red", " rabbit", " dis", "ught", " quickly", " while", " de", " tow", " idea", " enjoy", " G", " thr", " keep", " ground", "ting", " wonder", "us", "ummy", " great", " work", "ger", "isy", " tre", " should", " looking", "hes", " un", " door", "emb", " shiny", " been", " repl", " child", " bed", " tur", " ever", " wr", " sn", " bright", " voice", " next", " Bob", " Jane", "age", " mor", " rememb", " eyes", " picked", " face", "hy", " N", "ner", "bye", "ak", " real", "ff", " after", " forest", "uch", " nodded", " near", " Dad", " curi", " clean", " rock", " replied", " walk", " cry", " goodbye", " pretty", " noise", " squ", " give", " began", "able", " closer", "aisy", " dra", " share", " gre", " curious", " hands", " food", "bbed", " hurt", "ted", " blue", "ock", " pic", "irst", "lie", " app", " bad", " per", " pain", " As", " dif", " strong", " wait", " watched", " book", "day", " sound", " color", " being", " truck", " fish", "ired", " right", " world", "ng", "be", " bit", " Mia", " mag", " watch", "John", " doll", "les", " became", " Everyone", "imb", " shout", " Joe", " climb", " through", " boat", " leave", " -", "llow", "ster", "ull", " yell", " butter", " mouse", " sure", " angry", "No", "kay", "oon", "!\u201d", " night", " here", " years", " store", " R", "ream", " ac", " head", " where", " Mommy", "ppy", " Daisy", " showed", "so", " hopped", " rain", " flowers", " ready", " cont", "ached", " fill", " tal", " seen", " follow", " warm", " diffe", "ture", " why", " first", " grabbed", " also", " waved", " high", " magic", " import", "Thank", "ol", "leep", " jumped", "ac", " Sp", " dress", " name", " use", "zy", " different", " Sue", " happened", "ized", " flower", " important", " us", " tired", " really", " ru", "fully", " parent", " listen", " bro", "ount", " having", "Ben", " sweet", " game", "She", " ste", " grass", ".\u201d", " picture", "After", " wood", "itc", " surprise", " running", " ba", "cket", " lady", " reached", " butterf", " bug", "Jack", " cr", "ath", "mer", " perf", " done", " parents", "Her", " shouted", " thing", " himself", "ather", "ren", " delic", " fro", " z", " open", "lease", "where", "unny", " think", " tast", "\".", " tell", " kid", " rest", " Sarah", " story", "ient", " glad", " hop", " filled", " helped", " enjoyed", " carefully", " beh", " only", " sand", " set", "imes", " wonderful", "uff", " birds", " anym", " anymore", "Mommy", "lled", " green", " children", " slow", " gi", " creat", " After", "ued", " morning", " stick", " cla", "per", " worked", "Can", "th", " Spot", " pie", " tra", " happily", " top", " full", " dark", "ssed", "ation", " light", " coming", "est", " smell", " catch", " arri", "iss", " Em", " mon", " worry", " kitc", " kitchen", " fav", " In", "\n \n", " ask", "rel", " tall", " frog", " brother", " Molly", "ul", " din", "aught", " fire", " butterfly", " herself", " am", "ken", " strange", "Look", " underst", " spot", "aybe", " forg", " Sally", " cra", " able", " surprised", "ama", " flo", " arrived", "Sara", " ate", " dri", " Let", " soft", " dr", "ards", "oring", " mean", "ndma", "ined", "reed", " amazing", "inally", " sat", " yummy", " move", "sp", " dream", " okay", " enough", " kids", " used", "Don", "sy", " making", " finished", " bunny", "iver", " pond", " remembered", " prin", "room", " less", " mother", " learn", "aring", " contin", " Th", " has", " trees", " fell", " piece", "We", "ars", " perfect", " delicious", "Timmy", "ated", " sleep", " hid", " sing", " swim", " To", " pre", "ber", " That", " few", "As", "ign", "ila", " prom", " yellow", "His", " stop", " behind", " cook", " getting", " lion", " trying", "ater", " funny", " dro", "At", " realized", " air", " anything", " fox", " gone", "sc", " slide", " continued", "immy", " hair", " fair", "asure", " woods", "red", " joy", " draw", "ced", " own", " held", " finally", " puppy", " tri", " friendly", "Then", " touch", " yes", " cold", " hole", "bo", " part", " deep", " left", " mess", " gent", " needed", " wrong", "ross", "ling", "irrel", " There", " fix", "pping", " bow", "gon", " cut", " followed", " sec", " moment", "co", " Jill", "ually", "ask", " comp", "ike", " leaves", " block", " agreed", "icy", "ich", "eter", " doing", " pretend", " brought", " ice", " el", " squirrel", " looks", " buy", " K", "av", " thank", " our", " Gra", " white", " sear", " magical", "ield", " bee", " hill", " favor", "Hell", "Hello", "oney", "air", " sho", " Now", " cool", " build", " baby", "Wow", " cake", " tight", " mar", " favorite", " window", "From", " vis", " lesson", " stepped", "med", " someone", " stayed", " dinner", " another", "ze", "ash", "Sam", " ve", " flying", "?\u201d", " swing", "enny", "sic", " does", " wasn", " music", " understand", "amp", " read", "ph", "me", " else", " spl", "mb", "This", " everything", " met", " hun", " spark", "cess", " amazed", " farmer", " cand", " close", " duck", "itten", "Anna", " lost", " slowly", " bag", "set", "oom", " song", " beach", " Can", " laugh", "ventually", " bel", " table", " exploring", " balloon", "iting", "ire", " forgot", " bre", "ctor", " bigger", " pet", " All", " wished", " pat", " hear", " job", " cloud", " turn", " dir", "ower", "bby", " most", " mat", "ames", "ment", "sw", "lice", " might", "uffy", " broken", "row", "eared", " paint", " Tommy", " lake", " gu", " belie", " count", " answ", " faster", " field", " fur", "ins", "gle", " word", " poin", " ju", " won", "br", " ride", " Benny", " su", "ance", " ce", " hold", " waited", " cars", " must", " arm", " wall", "anc", " turned", " join", " What", " please", " Amy", " bar", " across", "ast", "iling", "os", " black", "zz", " neigh", " neighb", " whe", "key", " shared", " hor", "ming", "ence", " towards", " blocks", " listened", " promised", " side", " pro", " such", " longer", " secret", "oup", " cried", " hat", " silly", " adventures", " stu", "app", " cup", " Lila", " sometimes", "leph", "Oh", " cast", " alone", "Why", " cheered", " This", " Billy", " suddenly", " daddy", "ves", " hot", "gg", " orange", " others", " disapp", "ope", " Do", " pink", " climbed", "ott", " visit", " clapped", " happen", " tail", " floor", "ney", "avy", "Finally", "ee", " owl", " scary", "fort", " remember", " books", " worried", " smo", " talk", " believe", " att", " river", "iet", " plant", " hungry", " relie", " colour", " seemed", "ract", " lone", "andy", " hide", "ased", "ained", "ipped", " wet", " break", " Fl", "ek", " pus", " shap", "eddy", " young", " same", " je", " Daddy", " treasure", " cor", " lonely", " colors", " grow", " danger", "fused", "Lucy", "der", " along", " helping", " pulled", "chool", "itty", "ons", " sees", "Hi", " moral", " hig", "less", " nearby", " pocket", " 3", " stone", " heavy", " fight", " dragon", "ries", " pictures", " shop", "orm", "weet", " bott", " teac", " relieved", " treat", " colorful", " clot", " cho", " sail", " gentle", " living", " castle", "elc", " tiny", " school", " paper", " quiet", "ix", " clothes", "thy", " town", "And", " pieces", " jour", "umb", " nap", " doctor", "ucky", " bucket", "ely", " pers", "ions", " Emma", " without", " everywhere", " ob", " sit", " cave", " pig", " cookies", " higher", " snow", "ister", " Mary", " bike", " stre", " monster", "lf", " train", " land", " race", " closed", "never", "ored", " stand", " eleph", " elephant", " money", " likes", " fall", " sea", " caught", " Jimmy", " blank", " bath", " free", " rel", " eating", " exciting", " heart", "uit", " plan", "Max", " wear", " teacher", " fairy", "rew", "ateful", " snack", " kite", " des", " reach", " drove", " today", " words", " Soon", "Maybe", " moved", " blanket", "ises", " smart", "oun", " sister", " purp", " grateful", " pack", " cream", " smiles", "Do", " welc", " har", "pe", " makes", " naught", "aughter", " cele", " celebr", "Bob", " taking", " purple", "Molly", " candy", " party", " grandma", " Mr", " heal", "vered", " woke", "yard", " disco", "ining", "ward", " min", " mix", " dangerous", " though", " journey", " backyard", " fruit", " Inside", "unch", "bble", " bus", " naughty", " power", " coll", "ete", " laughing", " wise", "ail", " ret", " upset", "round", " dirty", "pa", " cour", " dance", " pen", " stuck", " life", " gather", " retur", "pper", " boun", " myster", "igg", " bite", " wouldn", "adow", " crying", " bask", " basket", " nothing", "cing", " Mama", " juice", " apple", "irt", "ho", " delight", " creature", "ible", " dist", " shoes", " days", " pract", " smiling", " swam", " course", " tou", " touched", "ier", " vill", " cou", " spr", " pres", "ountain", " inst", " adm", " lea", " daughter", "itch", " sunny", "epend", "de", " cray", " thin", " eventually", " imag", "la", "OK", " Tweet", " pot", " bush", "itting", " sign", " scream", " well", "ours", "ness", " ont", " onto", " inc", " busy", " sol", " plane", " peace", " path", " bring", " huge", " With", " Fluffy", " gift", " search", " pushed", " mark", " wings", " belong", " spotted", "Every", " tasty", " minut", "rot", "ndpa", " trou", " spent", " games", " explained", " wants", " smooth", " singing", " pull", " dolls", " swimming", " princess", " present", " ear", " watching", " sack", " past", "cle", " shining", " craw", " meet", "ped", " cir", " kitten", " stars", " pol", " forever", " broke", "fish", " stories", "orrow", " fig", " sunsh", " sunshine", " breat", " Jake", "ond", " neighbor", " suc", "ead", "outh", " sitting", " rocks", " bowl", " sang", " welcome", " dry", " clouds", " fron", " front", "rest", "cked", " Pete", " rolled", "Sure", "bow", " danced", "ang", " fit", " inte", " interest", " appeared", " owner", "Okay", " cozy", " monkey", " whist", " Jenny", " shapes", " brown", " street", " win", " yard", "ize", " rainbow", " tasted", "ass", " horse", "Tommy", " '", "ocked", " places", " wondered", "Mum", " which", " acc", "og", " late", " lunch", " arms", " whole", " lift", " egg", " sort", " round", " Emily", " mouth", " carry", " sur", " village", "alm", " drink", " key", " asks", " driver", " eas", " searched", " resp", "ten", " wish", "Just", " forget", "izz", " dropped", " noises", " sug", " mine", "thday", " eag", "fortable", " foot", " chest", " shook", " act", " corner", " carrot", "ens", " fence", " quest", " lar", "ider", "read", " confused", " threw", " bought", " collect", " net", " spin", "blem", "llo", " lovely", "Jane", "ground", " mummy", "gest", " lem", " Together", " spoon", " Ch", " problem", " shy", " farm", " wild", " pass", "aur", " mail", "let", " ent", "board", "ove", " large", "man", "cer", " emb", " Finally", "Joe", " interesting", " hoped", "Hey", " oce", " ocean", "ity", " ben", "oph", "obby", "gged", "scap", " embar", " embarra", " leg", " bottle", " rec", "ord", " spicy", " ign", " answer", " ap", " joke", " Grandma", " miss", "ancy", " bugs", " meadow", " bran", " branch", "orn", " group", "idge", " kick", " jun", "anut", " twins", " birthday", " cute", " spo", " patient", " teddy", " blew", " pointed", " af", " bone", " letter", " butt", "dle", " bedroom", " chair", "lex", " shr", "Mama", " wearing", " fold", "erly", " splas", "Of", " mysterious", " ug", " ugly", " talking", " pile", "Jimmy", " figure", "den", " holding", " excite", "ident", " carried", " healthy", " roll", " spe", "een", " mis", " instead", " Everywhere", " stood", " Maybe", " hours", "ps", "eterm", " excitement", " write", " bur", " tun", "ult", "In", "Now", " helpful", "ugg", " hidden", " forward", " picn", " picnic", " pill", " feet", " determ", " zoom", " drive", " person", " pool", " pudd", " clever", " remind", " embarrassed", "ose", " bubble", "Come", " asleep", " playground", " Mum", " organ", " jar", " puzz", " mot", " St", " Jen", " thinks", " spider", " teach", "Good", " lay", " wash", " matter", " ant", "old", " ph", " impre", " lucky", " ang", " jungle", " rope", " lemon", " inv", " sne", " colourful", "owed", "usie", " returned", "raid", "Mummy", "ian", " Kitty", " standing", " escap", "My", " fancy", " kiss", " turns", "amed", "ush", " sounds", " lit", " afraid", "rill", " hello", "col", " grew", "ular", " talked", " gathered", " sailed", "Sarah", " di", " building", " bat", " cow", " Sammy", "Later", " law", " mind", " whenever", " wave", " stir", " nest", " Come", " swings", " prot", " mad", " Fred", " angel", " shirt", " last", " flut", " later", " mist", "ual", "?\".", " seek", " smelled", " sparkly", " rob", "aking", " hope", " par", " furry", " breath", " throw", " motor", "ale", "hile", "ighed", " gigg", "ilk", "ert", " step", " Just", " sandw", " robot", " sour", " become", " protect", " Even", " gently", " ser", "vel", " accident", " peanut", "To", " peaceful", "iddle", " hopping", " sick", " ple", "Soon", " milk", " wra", " tightly", " fing", " minutes", " exp", " determined", " blow", " exam", " ber", " tig", " Tweety", " sel", " smelly", " mud", " val", " End", " grab", " storm", " trip", " anyone", " cheer", " bell", " wander", "unt", " goat", " med", "Mia", "getable", " nose", "oose", " answered", "urry", " neck", "sist", "cept", ",\u201d", " yelled", " calm", " jeal", " jealous", " week", "hin", " nut", " vegetable", " ash", " disappeared", " trouble", " asking", " tower", "ball", "St", " tear", " star", " couch", "ey", " Be", " waiting", " finish", "ependable", " success", " mistake", " jumping", " wip", "ating", "ener", " giant", " comes", "eth", " hit", " coo", " treats", " moon", "Amy", " selfish", " wide", " mountain", " Jim", " tom", " gas", "ird", " seat", " TV", " Sandy", " bull", " shore", "vous", " screamed", " respect", " match", " cater", " caterp", " caterpill", "ife", "umber", " Mummy", " dancing", " hiding", " Thank", "light", " Mrs", " chick", " wagon", " feels", " nod", " runs", "Lila", " Bobby", " splash", " paw", " class", " On", " caterpillar", "Where", " wom", " woman", " creative", " gener", "inted", "anny", "Sally", "ese", " thankful", " rocket", " pizz", " Mar", " Johnny", "Please", "eb", " puddle", " sleepy", " middle", " chased", " soup", " true", "izzy", " card", " saf", " generous", "rated", "irp", " lad", " ladder", " hugs", "elly", " police", " crayons", "bin", "isa", " weak", " test", " knowing", " these", " save", " ner", " gar", " unus", " unusual", " taken", " brush", " tid", " promise", "ying", "Em", " skipped", " disappo", " push", " Peter", "Gra", "ors", " apples", " trust", " nervous", "ured", " An", "There", "ache", "uce", "apa", " circ", " whistle", " ter", "Dad", " measure", " songs", "umpy", " feather", " realised", " tag", " dependable", " stret", " vegetables", " shell", " taste", " manag", " covered", "keep", "keeper", "wel", " bal", "umsy", "als", " cheese", " powerful", "oof", " Some", " terri", " trave", " pizza", " tiger", " plants", " coin", " em", " anc", " ancient", " jewel", "land", " add", "ustrated", " phone", "ork", " Somet", " hel", " clay", "urse", "ination", "ipp", " knee", " pretended", " market", " garage", "gy", " gem", " study", " twirl", " Andy", "umbled", " stronger", " snacks", " disappointed", " father", " mach", " bra", " often", " desk", "up", " crack", " bench", " king", " relax", " escape", " chew", " empt", " fixed", "ushed", " mod", "ola", " island", " Br", " frustrated", "imp", " ones", " saved", " honey", " reg", "mo", "ella", "ub", " road", " empty", " messy", " giggled", "nie", " arrow", " dirt", " tomorrow", " brightly", " sil", " understood", " record", " brill", " brilli", " brilliant", " ring", " solve", " stuff", " band", " oven", " dead", " medic", " medicine", "ana", "ittens", " tick", " loves", " relia", " reliable", " easy", "box", " ext", " once", "Well", " task", "orge", " distance", " managed", " Susie", " takes", " pin", " aw", " lead", " shake", " penny", " slid", " impressed", "airs", "ishing", " comet", " sock", " passed", " vi", " calling", " whis", "most", " decor", " gold", " chocol", " puzzle", " cabin", " meant", " giving", " spread", " Don", " shelf", " obed", " Little", " ed", " added", " delighted", " leaf", "ately", " grand", "henever", " content", " turkey", "year", "work", " wheel", " Alice", " fil", " ord", " supp", " dest", "ophie", " almost", " stream", " bald", "ctus", "Be", " pop", " rid", " O", " knocked", " celebrate", " av", " snee", " alre", " already", " favour", " fear", " tie", " frown", " icy", "ject", " obedient", " stones", "Mary", " ducks", " taught", " accept", " incred", " adventur", " adventurous", " discovered", " sight", " moving", " hang", "unk", " ok", " picking", " scr", "uring", "ention", "itter", " crown", "ina", " cookie", " accidentally", "uz", " lock", " board", " cactus", " Their", " team", " dolp", " shar", " sharp", "ctop", "ctopus", " spend", " fluffy", " clear", " live", " pleased", " extra", " favourite", " tidy", " happening", " yourself", " Whenever", "Alice", "ats", " yog", " splashed", " questions", " terrible", " guard", " chocolate", " Polly", " maze", " ship", " cher", " octopus", " polite", "Sue", " gray", " Grace", " dizzy", "reen", " eager", " stra", "lla", "body", " barber", " clumsy", " comfortable", " excitedly", " crawled", " sighed", " Papa", "osaur", "une", " poor", " above", " plate", "berry", " toug", "imed", "asing", "ature", " seed", " dinosaur", " incredible", " skip", " pir", "wards", " sticks", "anged", " pri", " ind", " fridge", " landed", " grumpy", " viol", " raven", " hive", " sorts", " walks", " char", "eorge", " tape", " march", " Sm", " button", " sharing", " shone", " At", " wore", " pour", "pack", " refused", "speci", "specially", " stumbled", " lazy", " explored", "port", "ory", " faces", " discover", "zed", " Le", " log", "ilt", " violin", " jam", " rich", " square", "cy", " pillow", " mic", " load", " dolphin", " Today", " waves", " barked", " twist", " Bl", " Why", "Billy", " delicate", " using", " kitty", " especially", " lying", " persist", " How", "ote", " kinds", " number", " fighting", " Teddy", " boring", " drum", " er", "aser", " mighty", " eld", " jelly", " Grandpa", " Re", " Lisa", " Alex", " kay", " line", "ever", "iness", " sounded", "!\".", " showing", " sandwich", " print", " chose", " sell", " packed", " finger", " circles", " squee", "lies", " check", " jog", " harm", " feed", " roof", " skin", " Sometimes", " sy", "live", " Smith", " raced", " queen", " string", "time", " those", " hum", "Jill", " cloth", " searching", " tough", "ha", " excla", " exclaimed", " pointing", " painted", " working", " liz", " Eventually", " wrote", " glow", " rude", " space", " leash", " practice", " walls", "enry", " Cl", " rough", "und", " trick", " tears", "ipper", "iff", " cush", " cart", "era", " zoo", " forgive", " dogs", " bees", "osie", "fic", "selves", " body", " spray", " ears", " drank", "anger", " grace", " ashamed", "aw", " wis", " rushed", " belonged", "adi", " edge", " persistent", "How", " times", " saying", "rank", " expens", " expensive", " suggest", " No", "orant", " camp", " mama", " gives", "nel", "ipe", " eraser", "yal", " snake", " otter", " diffic", " crab", " bottom", " successful", " chain", " guil", " guilty", " glue", "head", " shopkeeper", " imagined", "Who", " ruined", " eye", " neighbour", "aled", " sett", "rage", " prince", " leaving", " fool", " foolish", "onest", " useful", " thick", " witch", " crayon", "render", "ages", " loyal", " cross", " nuts", " hipp", " pear", " painting", " difficult", "Me", " learning", " flute", " mixed", " seem", " valu", " coat", "ipping", " pay", " wake", " loudly", " pirate", " itself", " rubb", " grown", "loo", " dull", " ignorant", " honest", " pup", " serious", " surrender", " tea", " tunnel", "illie", " sugar", " hippo", " elderly", " trucks", " marble", " player", " pray", " kayak", " smaller", " whale", " bloom", " bushes", " valuable", " deer", "iest", "com", " kindness", " knife", " enjoying", " compass", " lizard", " reve", " juicy", " bored", " thinking", " bathroom", " perform", " purse", " fountain", " towel", " fork", " tank", " tent", " Rosie", "lower", " branc", " branches", " speed", " shape", "kin", " warned", "yer", " eng", " Go", " may", " uni", " uniqu", " unique", " object", " beauty", " hurry", "urtle", " parade", "dge", " rub", " goes", " map", " stranger", "Stop", "rag", " regular", " Sophie", " charming", " package", " sailor", "ony", " bubbles", " bounce", " soap", " mov", " flash", " drawing", " grandpa", " cage", "ffe", " symb", " symbol", " missed", " gun", " ham", " ways", " lawyer", " nosy", " legs", " admired", " gasped", " metal", " frame", " orig", " origin", " original", " pee", " stubb", " stubborn", " wand", " offered", " quite", " reminded", " trunk", " turtle", "anic", " safely", " Al", " courage", " machine", " curt", " curtain", " built", " candle", " bitter", " boys", " invited", " vase", " tut", " dish", " Toby", " drew", " gho", " ghost", " boxes", " smoke", " rubbed", "heart", "vice", " admire", "Little", "ora", " sudden", "achel", " painter", "Their", " cheerful", "ital", "aced", " biggest", " raft", " suggested", "cu", " chu", " chubby", "chie", " telling", "olog", " clock", " rice", "irit", " wolf", " compet", " competit", " travel", " fruits", "uzzy", " tutor", " Mittens", " office", "bled", "angle", " second", " penc", " pencil", "not", " meas", " rep", " sweetheart", " doesn", " prep", " mir", " against", " Please", " uncom", " uncomfortable", " neckl", " necklace", " weird", " compassion", "See", " hosp", " hospital", " boss", " knob", " circle", " engine", "oomy", " Everything", " independ", " independent", " organized", " twig", " helic", " helicop", " helicopter", " tummy", " apolog", " lifted", " famous", " belt", "ches", " resc", " borrow", " sub", "can", " rode", " berries", " cone", " roar", " puts", " hears", " repe", " comput", " pit", " Blue", " oy", "bbie", " fu", "oop", " pole", " wagged", " cannot", " Elly", " peek", " While", "sely", " exper", " advice", " glass", "ror", " wiped", "issed", " peeked", " ref", "ince", " sauce", " lights", "inary", " cri", " shut", " James", "ines", " teeth", " lean", " barn", " diam", " diamond", "uggled", " unk", " jet", "iron", " noisy", "acket", " Brown", "vet", " compl", " shark", " trop", " sniff", " locked", " knight", " lamp", " patch", "ison", " oyster", "If", " sna", " maybe", "elp", " spoke", " spun", " closely", " If", " ahead", "ents", "  ", " alert", " gets", " kissed", " dreaming", " hadn", " twirled", "hood", " mem", " rose", " finding", " balance", "bor", " needs", " mole", " impat", " carrots", " chicken", " meal", " Ted", " resist", " proudly", " question", " butterflies", " spirit", " tool", " Leo", " leak", "aby", " jacket", "ots", "ision", " spinning", "nit", " Joey", " sparkled", " tuna", " treasures", " Bet", " fier", " fierce", " flashlight", " poppy", " Maria", " fuel", " driving", " Fin", " triangle", " celebrated", " dreams", " clap", "Help", "cream", " fake", " fre", " ener", "ded", " choose", " sadly", " brighter", " hung", " ending", " playful", " Frank", " ur", " tells", " practiced", " changed", " impatient", " change", " slipped", " Pe", " cooking", " early", " cane", " fishing", " tied", " joined", "ti", " bark", " furnit", " furniture", "nown", " crane", " laund", " laundry", " movie", "iv", " trophy", " moder", " modern", " coco", " cocoa", " lightning", " restaur", " restaurant", " clown", " pepper", " swan", " Ducky", " mush", " mushroom", " chase", " closet", "alk", " fresh", " fright", " wrapped", " carp", " carpet", " mirror", " perm", " Lola", " harder", " U", " mask", " harbor", " rat", "umbers", " hairy", " vine", " norm", "urch", "ict", " sold", " feathers", " sal", " whisp", " whispered", "ucked", " shoot", " George", "ym", " sciss", " scissors", " spill", " sco", " scoot", " horn", " env", " troubled", " themselves", "ience", " learnt", " vie", " view", " given", " handed", " careless", "inked", " allowed", " disag", " furt", " shaking", "arth", "ugged", " growing", " breakf", " breakfast", " placed", " pale", " led", " happiness", " miser", "iggle", " shrimp", " paid", " numbers", " cleaned", " complet", " decide", " Henry", " colours", " rare", " attic", " unpack", " visited", " football", " destro", " beef", " frag", " Bella", " subway", "het", " unknown", " harmless", "spap", " zeb", " zebra", "cano", " cushion", " gym", " ban", "Sorry", " thread", " hero", "ations", " Ro", " Remy", " iron", " Mark", " classroom", " thoughtful", " wishes", " tem", " steal", " modest", "omed", " nature", " further", " ped", " drop", "aul", "ense", " \u2013", " arg", " mailbox", " point", " miserable", " fat", " buttons", " Dave", "Peter", " normal", " split", "ief", " unl", " ax", " axe", " destroy", " stri", " ordinary", " weather", " dove", " cats", " writing", " spag", " spaghet", " spaghetti", "ssible", " newspap", " vol", " volcano", " knot", " church", " eggs", " cham", " chamber", " computer", "Re", " pige", " needle", " spring", " hurts", " harsh", " dug", " agree", " raz", " razor", "gn", " hammer", " graceful", " screen", "arlie", " straw", " blinked", " frightened", " chasing", " bent", " melt", " attract", " return", " streng", " strength", "\",", " patter", " bossy", " swinging", " gate", " cover", " minute", " discu", " skirt", " achie", " stairs", " hay", " hunt", " trade", " skill", " enc", " libr", " stared", " fragile", " squash", " dreamed", " jokes", " clapping", " four", " mill", "night", " cupboard", " envel", " comfort", " vel", " velvet", " factor", " factory", " corn", "atter", " nods", " firework", " berry", " veh", " vehic", " poison", " olive", " cree", " jolly", "addy", " beg", " disg", " reco", " yet", "ucet", " pushing", "Ch", " shouldn", "apped", " sum", " impro", "res", " earth", "Everyone", " mild", "ans", " pattern", " fasc", " bridge", " shine", "sit", " handle", " evening", "vest", " thief", " attractive", " frowned", " licked", " jail", "ants", " pil", " pilot", " cube", " louder", " city", "astic", " examine", " succe", " succeed", " grin", " station", " washed", " cell", "lev", "eve", "gie", " envious", " windows", " disgust", "'.", " stretch", " size", " lend", "igz", "igzag", " pump", " vend", " balloons", " friendsh", " friendship", " loll", " summer", " silver", " zip", " My", " older", " starting", " beet", " gloomy", " meeting", " create", " May", " filthy", " counting", " swamp", " mech", " mechanic", " blowing", " shocked", " ended", " sweetie", " attention", " enorm", " enormous", " library", " distant", " bump", " laser", " sparkling", " golden", " bake", "uzz", " theater", "ses", " Josh", " somewhere", " blackboard", " chim", " chimney", "now", " tries", " leop", " leopard", " aunt", " batter", " club", " tire", "arry", " pastel", " pigeon", " recogn", " faucet", " vendor", " repair", " vide", " energy", "Jim", " lollip", " lollipop", " cleaning", " rules", " quietly", " insist", " anywhere", " compassionate", " fascin", " kicked", " base", "sing", " giggle", " Danny", " Would", " chirp", " design", "Jenny", "Grandma", "uct", "ery", " cudd", " flutter", " headed", " pebble", " encou", " reading", " floated", " trash", " stamp", " riding", " yaw", " obser", " hook", " Tony", " cro", " hol", " holid", " holiday", "ung", " bounced", " Millie", " envelope", " comb", " stat", " statue", " mixer", " banana", " picks", " newspaper", " veil", " perfu", " perfume", "ato", " pants", " creek", " rubber", " folder", " sport", " goose", " rolling", " hoop", " delay", "inky", "used", " bet", " counted", " Rachel", " awe", "pid", " refres", " seeds", " revealed", " prov", " beetle", " rever", " incl", " inclu", " climbing", "ress", " OK", " prize", "ric", "fa", "Daisy", "Emma", " stretched", " sheep", " imagination", " van", " pad", " bags", " jogged", " relaxed", " saus", "cast", "seum", " nail", " organize", " fields", "zing", " suff", " yach", " yacht", " Lilly", "ron", "Sp", " vehicle", " wheat", "alley", " scooter", " Ju", " coffe", " coffee", " yogurt", " pipe", " disgusting", "ecause", " sep", " separ", " below", "Are", " isn", " perfectly", " pow", "reeze", " country", " known", " Look", " stirred", " surround", "unately", " intell", " intellig", "\n ", " message", " shouting", " por", " floating", " dig", " rug", " wandered", " coins", " nicely", "alph", " sandcast", " stupid", " museum", " deliver", " crazy", " avo", " low", "scope", " tray", "nowy", "lend", " scale", " lemonade", "Spot", "gging", " bouncing", " Chirp", "flower", " cherry", " explain", " float", " fan", " Z", " super", " reward", " avail", " available", "An", " stud", "urried", "ab", " disagreed", " softly", " weal", " sunset", " cries", " musc", " hut", " Sh", " amazem", " amazement", " soar", " helpless", " intelligent", " eagerly", " leaned", " aftern", " afternoon", " wire", " mystery", " lid", "Thanks", " requ", " onion", "Mr", " Tr", " skills", " tucked", " pretending", " buzz", " listening", " gifted", " scrat", "ci", " art", " splashing", "ooped", " spilled", " lose", " pian", " piano", " Where", " complain", " micro", " microscope", " scatter", " skipping", " Snowy", " peanuts", "illa", " switch", " Pat", " zipper"], "merges": [["h", "e"], [" ", "t"], [" ", "a"], [" ", "s"], [" ", "w"], ["n", "d"], [" t", "he"], ["e", "d"], ["i", "n"], [" a", "nd"], [" ", "b"], [" t", "o"], [" w", "a"], [" ", "h"], ["r", "e"], ["i", "t"], [" ", "f"], ["o", "u"], ["e", "r"], [" ", "l"], [" ", "he"], [" wa", "s"], [" ", "c"], [" ", "d"], [" ", "m"], [" ", "p"], [" ", "o"], ["in", "g"], ["o", "m"], ["a", "r"], ["a", "y"], ["i", "s"], [" ", "g"], ["T", "he"], ["i", "d"], ["a", "t"], ["l", "l"], ["e", "n"], [" s", "a"], ["n", "e"], [" h", "a"], ["i", "m"], ["l", "e"], [" ", "S"], ["a", "n"], ["o", "r"], [" ", "it"], [" t", "h"], [" ", "The"], ["e", "t"], [" ", "H"], ["i", "l"], ["o", "n"], [" he", "r"], ["i", "r"], ["v", "er"], ["e", "nd"], [" ", "in"], [" H", "e"], [" ", "n"], ["o", "t"], [" S", "he"], ["l", "d"], [" ", "e"], ["u", "t"], ["o", "w"], [" ", "u"], [" b", "e"], ["c", "k"], ["c", "e"], [" s", "he"], [" sa", "id"], ["i", "g"], [" s", "t"], ["o", "o"], [" s", "o"], ["p", "p"], [" ", "r"], ["a", "m"], [" ", "\""], ["k", "e"], [" ", "y"], [" o", "f"], ["v", "e"], ["it", "h"], ["s", "t"], ["k", "ed"], [" h", "is"], ["ver", "y"], ["f", "t"], [" w", "ith"], [" d", "ay"], ["r", "i"], [" ", "I"], ["n", "t"], [" p", "l"], ["a", "d"], [" u", "p"], [" th", "at"], [" The", "y"], [" ha", "d"], [" y", "ou"], ["x", "t"], ["il", "y"], ["it", "t"], [" ", "\n"], ["e", "l"], ["ou", "ld"], [" ", "T"], ["en", "t"], ["e", "xt"], [" o", "n"], ["o", "ft"], ["<", "|"], ["end", "oft"], ["endoft", "ext"], ["|", ">"], ["e", "s"], [" pl", "ay"], [" f", "or"], [" ", "L"], [" the", "y"], [" w", "e"], ["itt", "le"], ["ou", "nd"], ["m", "y"], ["u", "n"], ["ou", "t"], [" l", "ittle"], [" m", "om"], ["c", "h"], [" ha", "pp"], ["l", "y"], ["im", "e"], [" the", "re"], ["he", "r"], [" t", "ime"], ["a", "ll"], [" s", "m"], [" s", "h"], [" ", "very"], [" l", "i"], ["h", "t"], [" w", "h"], [" ", "ne"], [" ", "re"], ["om", "e"], ["a", "l"], [" wa", "nt"], [" ", "B"], ["s", "e"], [" d", "o"], ["a", "ck"], [" ", "k"], [" a", "s"], ["O", "n"], [" happ", "y"], [" b", "ig"], [" a", "n"], [" b", "ut"], ["On", "ce"], ["r", "a"], ["O", "ne"], [" sa", "w"], ["ri", "end"], ["v", "ed"], [" f", "riend"], [" l", "oo"], [" L", "ily"], ["ir", "l"], ["o", "re"], ["a", "ke"], ["e", "c"], ["u", "g"], [" g", "irl"], ["id", "e"], [" ", "M"], [" b", "o"], [" I", "t"], [" we", "re"], ["i", "ll"], ["r", "y"], [" ", "J"], [" up", "on"], [" n", "ot"], [" h", "im"], [" e", "x"], [" l", "o"], ["\n", "\n"], [" g", "o"], [" ", "j"], ["ar", "d"], ["!", "\""], [".", "\""], [" ", "out"], [" s", "p"], ["f", "u"], [" want", "ed"], [" a", "r"], [" c", "ould"], ["w", "ay"], [" to", "o"], ["he", "n"], ["u", "r"], [" ", "is"], [" s", "e"], ["h", "ing"], ["i", "nd"], ["a", "in"], [" T", "im"], ["ar", "t"], ["i", "c"], [" a", "t"], [" a", "ll"], [" ", "A"], ["he", "d"], [" w", "ent"], ["u", "m"], ["fu", "l"], ["il", "ed"], ["ig", "ht"], ["r", "om"], ["t", "er"], [" sm", "iled"], ["l", "p"], [" ar", "ound"], [" the", "m"], [" friend", "s"], [" he", "lp"], [" n", "am"], ["ou", "g"], ["oo", "d"], [" b", "ack"], [" d", "id"], [" c", "l"], ["ar", "k"], ["om", "et"], ["s", "s"], [" as", "ked"], [" the", "ir"], [" ha", "ve"], ["?", "\""], [" f", "un"], [" c", "a"], [" c", "an"], [" loo", "ked"], [" bo", "y"], [" s", "omet"], [" l", "e"], ["s", "ide"], ["o", "ne"], ["el", "t"], [" st", "art"], [" a", "l"], ["u", "re"], [" f", "e"], [" w", "ould"], [" f", "elt"], ["o", "p"], ["i", "ck"], [" lo", "ved"], [" nam", "ed"], ["g", "et"], [" n", "o"], ["d", "d"], [" ", "One"], [" a", "re"], ["am", "e"], ["it", "ed"], [" ex", "c"], [" m", "an"], ["re", "e"], ["i", "e"], ["k", "ing"], [" somet", "hing"], ["i", "ce"], ["on", "g"], [" w", "or"], [" li", "ke"], [" s", "c"], [" b", "ir"], [" start", "ed"], ["r", "o"], [" s", "ome"], ["get", "her"], [" a", "g"], [" m", "e"], [" f", "a"], [" bir", "d"], [" r", "o"], [" se", "e"], [" ", "E"], [" Tim", "my"], ["ad", "e"], ["ow", "n"], [" ", "W"], ["a", "g"], [" a", "way"], ["pp", "ed"], [" exc", "ited"], [" to", "gether"], [" B", "en"], [" to", "y"], ["p", "l"], ["ing", "s"], [" r", "an"], ["ou", "d"], ["ar", "ed"], [" wh", "at"], [" the", "n"], [" m", "ake"], ["b", "le"], [" m", "u"], [" h", "ome"], ["Y", "ou"], [" l", "a"], [" c", "h"], ["all", "y"], [" m", "ade"], [" wa", "l"], ["q", "u"], ["h", "at"], [" ag", "ain"], [" T", "om"], [",", "\""], [" f", "rom"], [" p", "ark"], ["a", "s"], [" f", "ound"], ["e", "ll"], [" d", "ec"], [" w", "hen"], [" ne", "w"], [" b", "r"], ["ou", "s"], [" c", "o"], ["i", "f"], [" wh", "o"], ["e", "p"], ["oug", "ht"], [" e", "very"], [" o", "t"], [" g", "et"], [" p", "ut"], [" B", "ut"], [" ot", "her"], [" sa", "d"], [" play", "ing"], [" o", "ne"], ["i", "le"], [" p", "r"], ["u", "dd"], [" c", "ar"], [" f", "l"], [" dec", "id"], [" ", "v"], [" o", "ld"], [" decid", "ed"], [" h", "ug"], ["b", "b"], ["a", "ve"], [" g", "ot"], [" b", "u"], [" s", "ay"], [" g", "ood"], ["a", "ch"], [" th", "ings"], ["ri", "ed"], ["n", "y"], [" ", "D"], ["u", "st"], [" th", "an"], ["ec", "i"], ["ou", "se"], [" be", "c"], [" fe", "el"], [" d", "own"], [" f", "ind"], ["udd", "en"], [" k", "n"], [" ", "ke"], [" s", "w"], [" c", "ame"], ["eci", "al"], [" b", "l"], [" sp", "ecial"], ["way", "s"], [" t", "ree"], [" a", "b"], ["udden", "ly"], ["nd", "er"], [" al", "ways"], [" l", "ot"], [" sc", "ared"], [" k", "ne"], ["u", "e"], [" p", "o"], ["c", "hed"], [" t", "ake"], ["oo", "k"], [" th", "ought"], [" ", "F"], [" in", "t"], ["ou", "r"], ["it", "e"], [" ab", "out"], ["g", "e"], ["an", "t"], ["is", "t"], [" ca", "re"], [" g", "ra"], [" d", "ad"], [" g", "r"], [" too", "k"], [" E", "very"], [" ex", "pl"], [" did", "n"], [" li", "ked"], ["en", "ed"], ["f", "e"], ["is", "e"], [" loo", "k"], [" la", "ug"], ["ft", "er"], [" ", "You"], [" p", "e"], ["L", "ily"], ["re", "at"], [" p", "a"], [" t", "a"], [" kne", "w"], ["u", "ck"], ["m", "a"], [" do", "g"], [" m", "ore"], [" out", "side"], [" you", "r"], [" h", "o"], ["er", "s"], [" t", "w"], ["v", "en"], [" c", "at"], [" s", "k"], ["n", "ed"], ["i", "ve"], [" h", "ow"], [" could", "n"], [" ", "en"], [" J", "o"], [" m", "y"], ["a", "ce"], [" mu", "ch"], ["g", "ed"], [" ", "qu"], [" s", "un"], ["ll", "y"], ["u", "c"], ["re", "t"], ["i", "on"], [" m", "o"], [" int", "o"], [" ne", "ver"], ["b", "y"], [" t", "r"], ["ar", "a"], [" an", "y"], [" o", "ver"], [" kn", "ow"], [" pr", "oud"], [" M", "om"], [" cl", "o"], [" le", "ar"], [" j", "o"], [" p", "u"], [" st", "r"], ["a", "x"], [" sh", "ow"], ["oug", "h"], [" ", "\u201c"], [" ", "if"], [" say", "s"], [" th", "is"], [" J", "ack"], [" mom", "my"], ["h", "n"], [" he", "ard"], ["p", "t"], ["is", "h"], ["v", "ent"], [" in", "side"], ["n", "ing"], ["a", "u"], [" o", "p"], ["ot", "h"], [" c", "all"], [" w", "ill"], [" a", "d"], [" f", "o"], ["il", "d"], [" b", "all"], [" h", "ouse"], ["e", "ar"], [" to", "ld"], ["d", "y"], ["B", "ut"], [" g", "ave"], [" ha", "nd"], [" of", "f"], [" toy", "s"], [" sm", "all"], ["v", "ing"], ["s", "el"], ["n", "a"], ["ot", "her"], ["or", "t"], [" r", "a"], [" j", "ust"], [" wa", "t"], [" wa", "ter"], ["he", "re"], [" be", "a"], [" S", "o"], ["nt", "il"], ["au", "se"], [" r", "un"], [" p", "ick"], ["The", "y"], [" c", "om"], ["um", "p"], [" l", "ong"], [" u", "ntil"], [" bea", "ut"], [" ro", "om"], ["at", "e"], ["ur", "p"], [" than", "ked"], [" t", "ried"], ["ad", "y"], [" bec", "ause"], ["s", "h"], ["a", "p"], ["an", "k"], [" lot", "s"], [" t", "ry"], [" g", "ard"], [" gard", "en"], [" play", "ed"], ["et", "ter"], [" s", "l"], [" ne", "ed"], ["s", "ed"], ["uc", "y"], [" e", "at"], [" b", "y"], [" e", "ven"], ["t", "y"], [" S", "am"], [" beaut", "i"], [" o", "r"], [" beauti", "ful"], ["in", "k"], ["sel", "f"], [" hug", "ged"], ["n", "na"], ["e", "m"], ["i", "z"], ["a", "ne"], [" laug", "hed"], [" be", "st"], [" fl", "ow"], [" call", "ed"], [" c", "u"], ["er", "ed"], [" wa", "y"], [" ", "end"], ["c", "t"], ["in", "e"], [" be", "ar"], [" sk", "y"], ["a", "nd"], ["re", "nt"], ["im", "al"], [" an", "imal"], [" M", "ax"], ["le", "w"], [" tw", "o"], ["o", "b"], ["i", "a"], [" p", "ret"], [" e", "ach"], [" ", "im"], ["W", "hen"], [" bo", "x"], [" expl", "ore"], [" w", "o"], ["I", "t"], [" d", "re"], ["ra", "ve"], [" fa", "st"], [" d", "on"], [" H", "is"], ["H", "e"], [" li", "ved"], [" n", "ice"], [" c", "he"], [" b", "etter"], ["es", "s"], [" H", "er"], ["ec", "t"], [" f", "am"], [" ad", "vent"], ["M", "om"], [" ke", "pt"], ["in", "y"], [" man", "y"], ["urp", "r"], [" s", "urpr"], [" b", "oth"], [" ", "P"], ["Y", "es"], [" c", "le"], [" sm", "ile"], ["L", "et"], [" k", "ind"], [" j", "ump"], [" st", "ay"], [" S", "ara"], [" h", "ard"], ["S", "o"], [" The", "n"], ["a", "re"], [" ", "C"], [" c", "ome"], [" f", "in"], ["or", "ry"], [" f", "lew"], [" feel", "ing"], ["f", "ore"], [" re", "m"], [" it", "s"], [" m", "um"], [" b", "rave"], [" g", "l"], [" so", "on"], ["ur", "t"], ["W", "hat"], [" st", "ill"], [" f", "ly"], [" fam", "ily"], [" wal", "ked"], [" t", "e"], ["is", "ed"], [" L", "ucy"], [" A", "nd"], [" advent", "ure"], [" co", "l"], [" st", "o"], ["ig", "h"], ["ic", "ed"], ["T", "h"], [" lo", "ve"], [" F", "rom"], ["l", "ed"], [" lear", "ned"], [" f", "ore"], [" care", "ful"], [" be", "fore"], [" f", "i"], ["op", "le"], [" animal", "s"], [" pl", "ace"], [" c", "on"], [" s", "orry"], [" l", "oud"], [" o", "w"], [" wal", "king"], [" y", "ear"], [" f", "ar"], ["g", "ry"], [" u", "nder"], ["ar", "y"], ["i", "p"], [" sa", "fe"], ["i", "es"], [" W", "e"], ["oo", "l"], [" go", "ing"], ["i", "ed"], [" im", "p"], [" W", "hen"], ["o", "y"], [" n", "ow"], ["T", "om"], [" not", "iced"], [" pe", "ople"], [" S", "uddenly"], [" f", "r"], [" sto", "pped"], ["g", "an"], [" l", "ist"], ["T", "hat"], ["a", "se"], ["ill", "y"], [" l", "et"], [" qu", "ick"], ["J", "o"], [" A", "nna"], ["T", "im"], [" d", "an"], [" d", "el"], ["bb", "it"], ["is", "hed"], ["j", "oy"], [" st", "or"], ["ma", "z"], [" th", "ree"], ["t", "hing"], ["o", "lly"], ["i", "ous"], [" a", "maz"], [" every", "one"], [" op", "ened"], ["dd", "ed"], [" e", "y"], ["e", "et"], [" ", "ide"], [" w", "ind"], ["s", "er"], [" m", "a"], [" Jo", "hn"], ["an", "ge"], [" v", "o"], ["S", "uddenly"], [" wa", "r"], [" r", "ed"], [" ra", "bbit"], [" d", "is"], ["ug", "ht"], [" quick", "ly"], [" wh", "ile"], [" d", "e"], [" to", "w"], [" ide", "a"], [" en", "joy"], [" ", "G"], [" th", "r"], [" ke", "ep"], [" gr", "ound"], ["t", "ing"], [" wo", "nder"], ["u", "s"], ["um", "my"], [" g", "reat"], [" wor", "k"], ["g", "er"], ["is", "y"], [" t", "re"], [" sh", "ould"], [" loo", "king"], ["he", "s"], [" u", "n"], [" do", "or"], ["em", "b"], [" sh", "iny"], [" be", "en"], [" re", "pl"], [" ch", "ild"], [" b", "ed"], [" t", "ur"], [" e", "ver"], [" w", "r"], [" s", "n"], [" br", "ight"], [" vo", "ice"], [" ne", "xt"], [" B", "ob"], [" J", "ane"], ["ag", "e"], [" m", "or"], [" rem", "emb"], [" ey", "es"], [" pick", "ed"], [" fa", "ce"], ["h", "y"], [" ", "N"], ["n", "er"], ["by", "e"], ["a", "k"], [" re", "al"], ["f", "f"], [" a", "fter"], [" fore", "st"], ["u", "ch"], [" no", "dded"], [" ne", "ar"], [" D", "ad"], [" cu", "ri"], [" cle", "an"], [" ro", "ck"], [" repl", "ied"], [" wal", "k"], [" c", "ry"], [" good", "bye"], [" pret", "ty"], [" no", "ise"], [" s", "qu"], [" g", "ive"], [" be", "gan"], ["a", "ble"], [" clo", "ser"], ["a", "isy"], [" d", "ra"], [" sh", "are"], [" g", "re"], [" curi", "ous"], [" hand", "s"], [" f", "ood"], ["bb", "ed"], [" h", "urt"], ["t", "ed"], [" bl", "ue"], ["o", "ck"], [" p", "ic"], ["ir", "st"], ["l", "ie"], [" a", "pp"], [" b", "ad"], [" p", "er"], [" p", "ain"], [" A", "s"], [" d", "if"], [" str", "ong"], [" wa", "it"], [" wat", "ched"], [" b", "ook"], ["d", "ay"], [" s", "ound"], [" col", "or"], [" be", "ing"], [" tr", "uck"], [" f", "ish"], ["ir", "ed"], [" r", "ight"], [" wor", "ld"], ["n", "g"], ["b", "e"], [" b", "it"], [" M", "ia"], [" m", "ag"], [" wat", "ch"], ["Jo", "hn"], [" do", "ll"], ["le", "s"], [" bec", "ame"], [" Every", "one"], ["im", "b"], [" sh", "out"], [" Jo", "e"], [" cl", "imb"], [" thr", "ough"], [" bo", "at"], [" le", "ave"], [" ", "-"], ["ll", "ow"], ["st", "er"], ["u", "ll"], [" y", "ell"], [" but", "ter"], [" m", "ouse"], [" s", "ure"], [" an", "gry"], ["N", "o"], ["k", "ay"], ["o", "on"], ["!", "\u201d"], [" n", "ight"], [" he", "re"], [" year", "s"], [" st", "ore"], [" ", "R"], ["re", "am"], [" a", "c"], [" he", "ad"], [" w", "here"], [" Mom", "my"], ["pp", "y"], [" D", "aisy"], [" show", "ed"], ["s", "o"], [" ho", "pped"], [" r", "ain"], [" flow", "ers"], [" re", "ady"], [" con", "t"], ["a", "ched"], [" f", "ill"], [" t", "al"], [" se", "en"], [" fo", "llow"], [" war", "m"], [" dif", "fe"], ["t", "ure"], [" wh", "y"], [" f", "irst"], [" gra", "bbed"], [" al", "so"], [" wa", "ved"], [" h", "igh"], [" mag", "ic"], [" imp", "ort"], ["Th", "ank"], ["o", "l"], ["le", "ep"], [" jump", "ed"], ["a", "c"], [" S", "p"], [" dre", "ss"], [" nam", "e"], [" u", "se"], ["z", "y"], [" diffe", "rent"], [" S", "ue"], [" happ", "ened"], ["iz", "ed"], [" flow", "er"], [" import", "ant"], [" u", "s"], [" t", "ired"], [" re", "ally"], [" r", "u"], ["fu", "lly"], [" pa", "rent"], [" list", "en"], [" b", "ro"], ["ou", "nt"], [" ha", "ving"], ["B", "en"], [" sw", "eet"], [" g", "ame"], ["S", "he"], [" st", "e"], [" gra", "ss"], [".", "\u201d"], [" pic", "ture"], ["A", "fter"], [" w", "ood"], ["it", "c"], [" surpr", "ise"], [" run", "ning"], [" b", "a"], ["ck", "et"], [" l", "ady"], [" re", "ached"], [" butter", "f"], [" b", "ug"], ["J", "ack"], [" c", "r"], ["at", "h"], ["m", "er"], [" per", "f"], [" do", "ne"], [" parent", "s"], ["H", "er"], [" shout", "ed"], [" th", "ing"], [" him", "self"], ["at", "her"], ["re", "n"], [" del", "ic"], [" f", "ro"], [" ", "z"], [" op", "en"], ["le", "ase"], ["w", "here"], ["un", "ny"], [" th", "ink"], [" ta", "st"], ["\"", "."], [" t", "ell"], [" k", "id"], [" re", "st"], [" Sara", "h"], [" stor", "y"], ["i", "ent"], [" gl", "ad"], [" h", "op"], [" fill", "ed"], [" help", "ed"], [" enjoy", "ed"], [" care", "fully"], [" be", "h"], [" on", "ly"], [" sa", "nd"], [" s", "et"], ["im", "es"], [" wonder", "ful"], ["u", "ff"], [" bird", "s"], [" any", "m"], [" anym", "ore"], ["Mom", "my"], ["ll", "ed"], [" gre", "en"], [" child", "ren"], [" sl", "ow"], [" g", "i"], [" c", "reat"], [" A", "fter"], ["u", "ed"], [" mor", "ning"], [" st", "ick"], [" cl", "a"], ["p", "er"], [" wor", "ked"], ["C", "an"], ["t", "h"], [" Sp", "ot"], [" p", "ie"], [" t", "ra"], [" happ", "ily"], [" to", "p"], [" f", "ull"], [" d", "ark"], ["ss", "ed"], ["at", "ion"], [" l", "ight"], [" com", "ing"], ["e", "st"], [" sm", "ell"], [" cat", "ch"], [" ar", "ri"], ["is", "s"], [" E", "m"], [" m", "on"], [" wor", "ry"], [" k", "itc"], [" kitc", "hen"], [" fa", "v"], [" I", "n"], ["\n", " \n"], [" as", "k"], ["re", "l"], [" t", "all"], [" fro", "g"], [" br", "other"], [" M", "olly"], ["u", "l"], [" d", "in"], ["a", "ught"], [" fi", "re"], [" butterf", "ly"], [" her", "self"], [" a", "m"], ["k", "en"], [" str", "ange"], ["L", "ook"], [" under", "st"], [" sp", "ot"], ["ay", "be"], [" for", "g"], [" S", "ally"], [" c", "ra"], [" a", "ble"], [" surpr", "ised"], ["am", "a"], [" fl", "o"], [" arri", "ved"], ["S", "ara"], [" at", "e"], [" d", "ri"], [" L", "et"], [" so", "ft"], [" d", "r"], ["ard", "s"], ["or", "ing"], [" me", "an"], ["nd", "ma"], ["in", "ed"], ["re", "ed"], [" amaz", "ing"], ["in", "ally"], [" s", "at"], [" y", "ummy"], [" mo", "ve"], ["s", "p"], [" dre", "am"], [" o", "kay"], [" en", "ough"], [" kid", "s"], [" u", "sed"], ["D", "on"], ["s", "y"], [" ma", "king"], [" fin", "ished"], [" b", "unny"], ["i", "ver"], [" po", "nd"], [" rememb", "ered"], [" pr", "in"], ["ro", "om"], [" l", "ess"], [" m", "other"], [" lear", "n"], ["ar", "ing"], [" cont", "in"], [" T", "h"], [" ha", "s"], [" tre", "es"], [" fe", "ll"], [" pie", "ce"], ["W", "e"], ["ar", "s"], [" perf", "ect"], [" delic", "ious"], ["Tim", "my"], ["at", "ed"], [" s", "leep"], [" h", "id"], [" s", "ing"], [" sw", "im"], [" T", "o"], [" p", "re"], ["b", "er"], [" T", "hat"], [" fe", "w"], ["A", "s"], ["ig", "n"], ["il", "a"], [" p", "rom"], [" yell", "ow"], ["H", "is"], [" st", "op"], [" beh", "ind"], [" c", "ook"], [" get", "ting"], [" li", "on"], [" try", "ing"], ["at", "er"], [" fun", "ny"], [" d", "ro"], ["A", "t"], [" real", "ized"], [" a", "ir"], [" any", "thing"], [" fo", "x"], [" go", "ne"], ["s", "c"], [" sl", "ide"], [" contin", "ued"], ["im", "my"], [" ha", "ir"], [" fa", "ir"], ["as", "ure"], [" wood", "s"], ["r", "ed"], [" jo", "y"], [" dra", "w"], ["c", "ed"], [" ow", "n"], [" he", "ld"], [" fin", "ally"], [" pu", "ppy"], [" t", "ri"], [" friend", "ly"], ["The", "n"], [" to", "uch"], [" y", "es"], [" co", "ld"], [" ho", "le"], ["b", "o"], [" p", "art"], [" de", "ep"], [" le", "ft"], [" m", "ess"], [" g", "ent"], [" need", "ed"], [" wr", "ong"], ["ro", "ss"], ["l", "ing"], ["ir", "rel"], [" The", "re"], [" fi", "x"], ["pp", "ing"], [" b", "ow"], ["g", "on"], [" c", "ut"], [" follow", "ed"], [" s", "ec"], [" mom", "ent"], ["c", "o"], [" J", "ill"], ["u", "ally"], ["as", "k"], [" com", "p"], ["i", "ke"], [" leave", "s"], [" bl", "ock"], [" ag", "reed"], ["ic", "y"], ["i", "ch"], ["et", "er"], [" do", "ing"], [" pret", "end"], [" br", "ought"], [" ", "ice"], [" e", "l"], [" squ", "irrel"], [" look", "s"], [" bu", "y"], [" ", "K"], ["a", "v"], [" than", "k"], [" ", "our"], [" G", "ra"], [" wh", "ite"], [" se", "ar"], [" magic", "al"], ["ie", "ld"], [" be", "e"], [" h", "ill"], [" fav", "or"], ["H", "ell"], ["Hell", "o"], ["one", "y"], ["a", "ir"], [" sh", "o"], [" N", "ow"], [" c", "ool"], [" bu", "ild"], [" ba", "by"], ["W", "ow"], [" c", "ake"], [" t", "ight"], [" m", "ar"], [" favor", "ite"], [" wind", "ow"], ["F", "rom"], [" v", "is"], [" less", "on"], [" ste", "pped"], ["m", "ed"], [" some", "one"], [" stay", "ed"], [" din", "ner"], [" an", "other"], ["z", "e"], ["as", "h"], ["S", "am"], [" ", "ve"], [" fly", "ing"], ["?", "\u201d"], [" sw", "ing"], ["en", "ny"], ["s", "ic"], [" do", "es"], [" was", "n"], [" mu", "sic"], [" underst", "and"], ["am", "p"], [" re", "ad"], ["p", "h"], ["m", "e"], [" el", "se"], [" sp", "l"], ["m", "b"], ["Th", "is"], [" every", "thing"], [" m", "et"], [" h", "un"], [" sp", "ark"], ["ce", "ss"], [" amaz", "ed"], [" far", "mer"], [" ca", "nd"], [" clo", "se"], [" d", "uck"], ["itt", "en"], ["A", "nna"], [" lo", "st"], [" slow", "ly"], [" b", "ag"], ["s", "et"], ["o", "om"], [" s", "ong"], [" be", "ach"], [" C", "an"], [" laug", "h"], ["vent", "ually"], [" be", "l"], [" ta", "ble"], [" expl", "oring"], [" ball", "oon"], ["it", "ing"], ["i", "re"], [" forg", "ot"], [" b", "re"], ["ct", "or"], [" big", "ger"], [" p", "et"], [" A", "ll"], [" w", "ished"], [" p", "at"], [" he", "ar"], [" jo", "b"], [" cl", "oud"], [" tur", "n"], [" d", "ir"], ["ow", "er"], ["bb", "y"], [" mo", "st"], [" m", "at"], ["am", "es"], ["m", "ent"], ["s", "w"], ["l", "ice"], [" m", "ight"], ["uff", "y"], [" bro", "ken"], ["r", "ow"], ["e", "ared"], [" pain", "t"], [" Tom", "my"], [" l", "ake"], [" g", "u"], [" be", "lie"], [" c", "ount"], [" an", "sw"], [" fast", "er"], [" f", "ield"], [" f", "ur"], ["in", "s"], ["g", "le"], [" wor", "d"], [" po", "in"], [" j", "u"], [" w", "on"], ["b", "r"], [" r", "ide"], [" Ben", "ny"], [" s", "u"], ["an", "ce"], [" c", "e"], [" ho", "ld"], [" wa", "ited"], [" car", "s"], [" mu", "st"], [" ar", "m"], [" wa", "ll"], ["an", "c"], [" tur", "ned"], [" jo", "in"], [" W", "hat"], [" p", "lease"], [" A", "my"], [" b", "ar"], [" ac", "ross"], ["a", "st"], ["il", "ing"], ["o", "s"], [" bl", "ack"], ["z", "z"], [" ne", "igh"], [" neigh", "b"], [" w", "he"], ["ke", "y"], [" sh", "ared"], [" h", "or"], ["m", "ing"], ["en", "ce"], [" tow", "ards"], [" block", "s"], [" list", "ened"], [" prom", "ised"], [" s", "ide"], [" p", "ro"], [" s", "uch"], [" long", "er"], [" sec", "ret"], ["ou", "p"], [" c", "ried"], [" h", "at"], [" s", "illy"], [" adventure", "s"], [" st", "u"], ["a", "pp"], [" cu", "p"], [" L", "ila"], [" somet", "imes"], ["le", "ph"], ["O", "h"], [" ca", "st"], [" al", "one"], ["W", "hy"], [" che", "ered"], [" Th", "is"], [" B", "illy"], [" s", "uddenly"], [" dad", "dy"], ["ve", "s"], [" h", "ot"], ["g", "g"], [" or", "ange"], [" other", "s"], [" dis", "app"], ["op", "e"], [" D", "o"], [" p", "ink"], [" climb", "ed"], ["ot", "t"], [" vis", "it"], [" cla", "pped"], [" happ", "en"], [" ta", "il"], [" flo", "or"], ["ne", "y"], ["av", "y"], ["F", "inally"], ["e", "e"], [" ow", "l"], [" sc", "ary"], ["f", "ort"], [" rememb", "er"], [" book", "s"], [" wor", "ried"], [" sm", "o"], [" tal", "k"], [" belie", "ve"], [" at", "t"], [" r", "iver"], ["i", "et"], [" pl", "ant"], [" hun", "gry"], [" re", "lie"], [" col", "our"], [" see", "med"], ["ra", "ct"], [" lo", "ne"], ["and", "y"], [" h", "ide"], ["as", "ed"], ["ain", "ed"], ["i", "pped"], [" w", "et"], [" bre", "ak"], [" F", "l"], ["e", "k"], [" pu", "s"], [" sh", "ap"], ["ed", "dy"], [" you", "ng"], [" sa", "me"], [" j", "e"], [" Dad", "dy"], [" tre", "asure"], [" c", "or"], [" lone", "ly"], [" color", "s"], [" gr", "ow"], [" dan", "ger"], ["fu", "sed"], ["L", "ucy"], ["d", "er"], [" al", "ong"], [" help", "ing"], [" pu", "lled"], ["ch", "ool"], ["itt", "y"], ["on", "s"], [" se", "es"], ["H", "i"], [" mor", "al"], [" h", "ig"], ["le", "ss"], [" near", "by"], [" po", "cket"], [" ", "3"], [" st", "one"], [" he", "avy"], [" f", "ight"], [" dra", "gon"], ["ri", "es"], [" picture", "s"], [" sh", "op"], ["or", "m"], ["w", "eet"], [" b", "ott"], [" te", "ac"], [" relie", "ved"], [" t", "reat"], [" color", "ful"], [" cl", "ot"], [" ch", "o"], [" sa", "il"], [" gent", "le"], [" li", "ving"], [" cast", "le"], ["el", "c"], [" t", "iny"], [" s", "chool"], [" pa", "per"], [" qu", "iet"], ["i", "x"], [" clot", "hes"], ["t", "hy"], [" tow", "n"], ["A", "nd"], [" piece", "s"], [" j", "our"], ["um", "b"], [" n", "ap"], [" do", "ctor"], ["uck", "y"], [" bu", "cket"], ["el", "y"], [" p", "ers"], ["ion", "s"], [" Em", "ma"], [" with", "out"], [" every", "where"], [" o", "b"], [" s", "it"], [" ca", "ve"], [" p", "ig"], [" cook", "ies"], [" hig", "her"], [" sn", "ow"], ["is", "ter"], [" M", "ary"], [" b", "ike"], [" st", "re"], [" mon", "ster"], ["l", "f"], [" tra", "in"], [" la", "nd"], [" r", "ace"], [" clo", "sed"], ["ne", "ver"], ["or", "ed"], [" st", "and"], [" e", "leph"], [" eleph", "ant"], [" m", "oney"], [" like", "s"], [" f", "all"], [" se", "a"], [" ca", "ught"], [" J", "immy"], [" bl", "ank"], [" b", "ath"], [" f", "ree"], [" re", "l"], [" eat", "ing"], [" exc", "iting"], [" he", "art"], ["u", "it"], [" pl", "an"], ["M", "ax"], [" we", "ar"], [" teac", "her"], [" fair", "y"], ["re", "w"], ["ate", "ful"], [" sn", "ack"], [" k", "ite"], [" d", "es"], [" re", "ach"], [" dro", "ve"], [" to", "day"], [" word", "s"], [" So", "on"], ["M", "aybe"], [" mo", "ved"], [" blank", "et"], ["is", "es"], [" sm", "art"], ["ou", "n"], [" s", "ister"], [" p", "urp"], [" gr", "ateful"], [" p", "ack"], [" c", "ream"], [" smile", "s"], ["D", "o"], [" w", "elc"], [" h", "ar"], ["p", "e"], [" make", "s"], [" n", "aught"], ["aught", "er"], [" ce", "le"], [" cele", "br"], ["B", "ob"], [" ta", "king"], [" purp", "le"], ["M", "olly"], [" cand", "y"], [" part", "y"], [" gra", "ndma"], [" M", "r"], [" he", "al"], ["ver", "ed"], [" wo", "ke"], ["y", "ard"], [" dis", "co"], ["in", "ing"], ["w", "ard"], [" m", "in"], [" m", "ix"], [" danger", "ous"], [" th", "ough"], [" jour", "ney"], [" back", "yard"], [" fr", "uit"], [" In", "side"], ["un", "ch"], ["b", "ble"], [" bu", "s"], [" naught", "y"], [" p", "ower"], [" co", "ll"], ["et", "e"], [" laug", "hing"], [" w", "ise"], ["a", "il"], [" re", "t"], [" up", "set"], ["r", "ound"], [" dir", "ty"], ["p", "a"], [" c", "our"], [" dan", "ce"], [" p", "en"], [" st", "uck"], [" li", "fe"], [" g", "ather"], [" ret", "ur"], ["pp", "er"], [" b", "oun"], [" my", "ster"], ["ig", "g"], [" b", "ite"], [" would", "n"], ["ad", "ow"], [" cry", "ing"], [" b", "ask"], [" bask", "et"], [" not", "hing"], ["c", "ing"], [" M", "ama"], [" ju", "ice"], [" app", "le"], ["ir", "t"], ["h", "o"], [" del", "ight"], [" creat", "ure"], ["i", "ble"], [" d", "ist"], [" sho", "es"], [" day", "s"], [" p", "ract"], [" sm", "iling"], [" sw", "am"], [" cour", "se"], [" to", "u"], [" tou", "ched"], ["i", "er"], [" v", "ill"], [" c", "ou"], [" sp", "r"], [" pre", "s"], ["ount", "ain"], [" in", "st"], [" ad", "m"], [" le", "a"], [" d", "aughter"], ["it", "ch"], [" sun", "ny"], ["ep", "end"], ["d", "e"], [" cr", "ay"], [" th", "in"], [" e", "ventually"], [" im", "ag"], ["l", "a"], ["O", "K"], [" T", "weet"], [" p", "ot"], [" bu", "sh"], ["itt", "ing"], [" s", "ign"], [" sc", "ream"], [" we", "ll"], ["our", "s"], ["ne", "ss"], [" o", "nt"], [" ont", "o"], [" in", "c"], [" bu", "sy"], [" so", "l"], [" pl", "ane"], [" pe", "ace"], [" p", "ath"], [" br", "ing"], [" hug", "e"], [" W", "ith"], [" Fl", "uffy"], [" gi", "ft"], [" sear", "ch"], [" pus", "hed"], [" m", "ark"], [" w", "ings"], [" bel", "ong"], [" spot", "ted"], ["E", "very"], [" tast", "y"], [" min", "ut"], ["r", "ot"], ["nd", "pa"], [" tr", "ou"], [" sp", "ent"], [" g", "ames"], [" expl", "ained"], [" want", "s"], [" smo", "oth"], [" sing", "ing"], [" pu", "ll"], [" doll", "s"], [" swim", "ming"], [" prin", "cess"], [" pres", "ent"], [" e", "ar"], [" watch", "ing"], [" sa", "ck"], [" pa", "st"], ["c", "le"], [" sh", "ining"], [" cra", "w"], [" me", "et"], ["p", "ed"], [" c", "ir"], [" k", "itten"], [" st", "ars"], [" po", "l"], [" fore", "ver"], [" bro", "ke"], ["f", "ish"], [" stor", "ies"], ["or", "row"], [" f", "ig"], [" sun", "sh"], [" sunsh", "ine"], [" b", "reat"], [" J", "ake"], ["o", "nd"], [" neighb", "or"], [" s", "uc"], ["e", "ad"], ["out", "h"], [" s", "itting"], [" rock", "s"], [" bow", "l"], [" sa", "ng"], [" welc", "ome"], [" d", "ry"], [" cloud", "s"], [" fr", "on"], [" fron", "t"], ["re", "st"], ["ck", "ed"], [" P", "ete"], [" ro", "lled"], ["S", "ure"], ["b", "ow"], [" dan", "ced"], ["an", "g"], [" f", "it"], [" int", "e"], [" inte", "rest"], [" app", "eared"], [" ow", "ner"], ["O", "kay"], [" co", "zy"], [" mon", "key"], [" wh", "ist"], [" J", "enny"], [" shap", "es"], [" br", "own"], [" stre", "et"], [" w", "in"], [" y", "ard"], ["iz", "e"], [" rain", "bow"], [" tast", "ed"], ["a", "ss"], [" hor", "se"], ["Tom", "my"], [" ", "'"], ["ock", "ed"], [" place", "s"], [" wonder", "ed"], ["M", "um"], [" wh", "ich"], [" ac", "c"], ["o", "g"], [" l", "ate"], [" l", "unch"], [" arm", "s"], [" who", "le"], [" li", "ft"], [" e", "gg"], [" s", "ort"], [" r", "ound"], [" Em", "ily"], [" m", "outh"], [" car", "ry"], [" s", "ur"], [" vill", "age"], ["al", "m"], [" dr", "ink"], [" ke", "y"], [" ask", "s"], [" dri", "ver"], [" e", "as"], [" sear", "ched"], [" re", "sp"], ["t", "en"], [" w", "ish"], ["J", "ust"], [" for", "get"], ["iz", "z"], [" dro", "pped"], [" no", "ises"], [" s", "ug"], [" m", "ine"], ["th", "day"], [" e", "ag"], ["fort", "able"], [" fo", "ot"], [" che", "st"], [" sh", "ook"], [" a", "ct"], [" cor", "ner"], [" car", "rot"], ["en", "s"], [" f", "ence"], [" qu", "est"], [" l", "ar"], ["id", "er"], ["re", "ad"], [" con", "fused"], [" th", "rew"], [" b", "ought"], [" coll", "ect"], [" ne", "t"], [" sp", "in"], ["ble", "m"], ["ll", "o"], [" love", "ly"], ["J", "ane"], ["g", "round"], [" mum", "my"], ["ge", "st"], [" le", "m"], [" To", "gether"], [" sp", "oon"], [" C", "h"], [" pro", "blem"], [" sh", "y"], [" far", "m"], [" w", "ild"], [" pa", "ss"], ["a", "ur"], [" ma", "il"], ["le", "t"], [" ", "ent"], ["bo", "ard"], ["o", "ve"], [" lar", "ge"], ["m", "an"], ["c", "er"], [" e", "mb"], [" F", "inally"], ["Jo", "e"], [" interest", "ing"], [" hop", "ed"], ["He", "y"], [" o", "ce"], [" oce", "an"], ["it", "y"], [" b", "en"], ["op", "h"], ["o", "bby"], ["g", "ged"], ["sc", "ap"], [" emb", "ar"], [" embar", "ra"], [" le", "g"], [" bott", "le"], [" re", "c"], ["or", "d"], [" sp", "icy"], [" ", "ign"], [" answ", "er"], [" a", "p"], [" jo", "ke"], [" Gra", "ndma"], [" m", "iss"], ["anc", "y"], [" bug", "s"], [" me", "adow"], [" br", "an"], [" bran", "ch"], ["or", "n"], [" gr", "oup"], ["id", "ge"], [" k", "ick"], [" j", "un"], ["an", "ut"], [" tw", "ins"], [" bir", "thday"], [" cut", "e"], [" sp", "o"], [" pat", "ient"], [" t", "eddy"], [" b", "lew"], [" poin", "ted"], [" a", "f"], [" bo", "ne"], [" l", "etter"], [" but", "t"], ["d", "le"], [" bed", "room"], [" ch", "air"], ["le", "x"], [" sh", "r"], ["M", "ama"], [" we", "aring"], [" fo", "ld"], ["er", "ly"], [" spl", "as"], ["O", "f"], [" myster", "ious"], [" u", "g"], [" ug", "ly"], [" tal", "king"], [" p", "ile"], ["J", "immy"], [" fig", "ure"], ["d", "en"], [" hold", "ing"], [" exc", "ite"], ["id", "ent"], [" car", "ried"], [" heal", "thy"], [" ro", "ll"], [" sp", "e"], ["e", "en"], [" m", "is"], [" inst", "ead"], [" Every", "where"], [" st", "ood"], [" M", "aybe"], [" h", "ours"], ["p", "s"], ["eter", "m"], [" excite", "ment"], [" wr", "ite"], [" b", "ur"], [" t", "un"], ["ul", "t"], ["I", "n"], ["N", "ow"], [" help", "ful"], ["ug", "g"], [" hid", "den"], [" for", "ward"], [" pic", "n"], [" picn", "ic"], [" p", "ill"], [" fe", "et"], [" d", "eterm"], [" z", "oom"], [" dri", "ve"], [" pers", "on"], [" p", "ool"], [" p", "udd"], [" cle", "ver"], [" rem", "ind"], [" embarra", "ssed"], ["o", "se"], [" bu", "bble"], ["C", "ome"], [" as", "leep"], [" play", "ground"], [" M", "um"], [" or", "gan"], [" j", "ar"], [" pu", "zz"], [" m", "ot"], [" S", "t"], [" J", "en"], [" think", "s"], [" sp", "ider"], [" te", "ach"], ["G", "ood"], [" l", "ay"], [" was", "h"], [" mat", "ter"], [" a", "nt"], ["o", "ld"], [" p", "h"], [" imp", "re"], [" l", "ucky"], [" an", "g"], [" jun", "gle"], [" r", "ope"], [" lem", "on"], [" in", "v"], [" s", "ne"], [" colour", "ful"], ["ow", "ed"], ["us", "ie"], [" retur", "ned"], ["ra", "id"], ["M", "ummy"], ["i", "an"], [" K", "itty"], [" stand", "ing"], [" e", "scap"], ["M", "y"], [" f", "ancy"], [" k", "iss"], [" turn", "s"], ["am", "ed"], ["u", "sh"], [" sound", "s"], [" l", "it"], [" af", "raid"], ["ri", "ll"], [" he", "llo"], ["c", "ol"], [" gre", "w"], ["ul", "ar"], [" tal", "ked"], [" gather", "ed"], [" sa", "iled"], ["Sara", "h"], [" d", "i"], [" build", "ing"], [" b", "at"], [" c", "ow"], [" Sam", "my"], ["L", "ater"], [" la", "w"], [" m", "ind"], [" whe", "never"], [" wa", "ve"], [" st", "ir"], [" ne", "st"], [" C", "ome"], [" sw", "ings"], [" pr", "ot"], [" m", "ad"], [" F", "red"], [" ang", "el"], [" sh", "irt"], [" la", "st"], [" fl", "ut"], [" l", "ater"], [" m", "ist"], ["u", "al"], ["?\"", "."], [" see", "k"], [" smell", "ed"], [" spark", "ly"], [" ro", "b"], ["a", "king"], [" hop", "e"], [" p", "ar"], [" fur", "ry"], [" breat", "h"], [" thr", "ow"], [" mot", "or"], ["a", "le"], ["h", "ile"], ["ig", "hed"], [" g", "igg"], ["il", "k"], ["er", "t"], [" st", "ep"], [" J", "ust"], [" sand", "w"], [" rob", "ot"], [" s", "our"], [" bec", "ome"], [" prot", "ect"], [" E", "ven"], [" gent", "ly"], [" s", "er"], ["ve", "l"], [" acc", "ident"], [" pe", "anut"], ["T", "o"], [" peace", "ful"], ["id", "dle"], [" ho", "pping"], [" s", "ick"], [" p", "le"], ["So", "on"], [" m", "ilk"], [" w", "ra"], [" tight", "ly"], [" f", "ing"], [" minut", "es"], [" ex", "p"], [" determ", "ined"], [" bl", "ow"], [" ex", "am"], [" b", "er"], [" t", "ig"], [" Tweet", "y"], [" s", "el"], [" smell", "y"], [" mu", "d"], [" v", "al"], [" E", "nd"], [" gra", "b"], [" stor", "m"], [" tri", "p"], [" any", "one"], [" che", "er"], [" be", "ll"], [" wa", "nder"], ["u", "nt"], [" go", "at"], [" m", "ed"], ["M", "ia"], ["get", "able"], [" no", "se"], ["oo", "se"], [" answ", "ered"], ["ur", "ry"], [" ne", "ck"], ["s", "ist"], ["ce", "pt"], [",", "\u201d"], [" yell", "ed"], [" c", "alm"], [" je", "al"], [" jeal", "ous"], [" we", "ek"], ["h", "in"], [" n", "ut"], [" ve", "getable"], [" as", "h"], [" disapp", "eared"], [" trou", "ble"], [" as", "king"], [" tow", "er"], ["b", "all"], ["S", "t"], [" t", "ear"], [" st", "ar"], [" cou", "ch"], ["e", "y"], [" B", "e"], [" wait", "ing"], [" fin", "ish"], ["epend", "able"], [" suc", "cess"], [" mist", "ake"], [" jump", "ing"], [" w", "ip"], ["at", "ing"], ["en", "er"], [" gi", "ant"], [" com", "es"], ["et", "h"], [" h", "it"], [" c", "oo"], [" treat", "s"], [" mo", "on"], ["A", "my"], [" sel", "fish"], [" w", "ide"], [" m", "ountain"], [" J", "im"], [" to", "m"], [" g", "as"], ["ir", "d"], [" se", "at"], [" T", "V"], [" S", "andy"], [" bu", "ll"], [" sh", "ore"], ["v", "ous"], [" scream", "ed"], [" resp", "ect"], [" mat", "ch"], [" cat", "er"], [" cater", "p"], [" caterp", "ill"], ["if", "e"], ["um", "ber"], [" M", "ummy"], [" dan", "cing"], [" hid", "ing"], [" Th", "ank"], ["l", "ight"], [" Mr", "s"], [" ch", "ick"], [" wa", "gon"], [" feel", "s"], [" no", "d"], [" run", "s"], ["L", "ila"], [" B", "obby"], [" spl", "ash"], [" pa", "w"], [" cla", "ss"], [" ", "On"], [" caterpill", "ar"], ["W", "here"], [" w", "om"], [" wom", "an"], [" creat", "ive"], [" g", "ener"], ["in", "ted"], ["an", "ny"], ["S", "ally"], ["es", "e"], [" thank", "ful"], [" rock", "et"], [" p", "izz"], [" M", "ar"], [" John", "ny"], ["P", "lease"], ["e", "b"], [" pudd", "le"], [" sleep", "y"], [" m", "iddle"], [" ch", "ased"], [" s", "oup"], [" tr", "ue"], ["iz", "zy"], [" c", "ard"], [" sa", "f"], [" gener", "ous"], ["r", "ated"], ["ir", "p"], [" l", "ad"], [" lad", "der"], [" hug", "s"], ["ell", "y"], [" po", "lice"], [" cray", "ons"], ["b", "in"], ["is", "a"], [" we", "ak"], [" te", "st"], [" know", "ing"], [" the", "se"], [" sa", "ve"], [" n", "er"], [" g", "ar"], [" un", "us"], [" unus", "ual"], [" ta", "ken"], [" br", "ush"], [" t", "id"], [" prom", "ise"], ["y", "ing"], ["E", "m"], [" sk", "ipped"], [" disapp", "o"], [" pu", "sh"], [" P", "eter"], ["G", "ra"], ["or", "s"], [" app", "les"], [" tr", "ust"], [" ner", "vous"], ["ur", "ed"], [" A", "n"], ["The", "re"], ["ac", "he"], ["u", "ce"], ["ap", "a"], [" cir", "c"], [" whist", "le"], [" t", "er"], ["D", "ad"], [" me", "asure"], [" song", "s"], ["ump", "y"], [" fe", "ather"], [" real", "ised"], [" t", "ag"], [" d", "ependable"], [" st", "ret"], [" vegetable", "s"], [" she", "ll"], [" tast", "e"], [" man", "ag"], [" co", "vered"], ["ke", "ep"], ["keep", "er"], ["w", "el"], [" b", "al"], ["um", "sy"], ["al", "s"], [" che", "ese"], [" power", "ful"], ["oo", "f"], [" S", "ome"], [" ter", "ri"], [" t", "rave"], [" pizz", "a"], [" tig", "er"], [" plant", "s"], [" co", "in"], [" e", "m"], [" an", "c"], [" anc", "ient"], [" je", "wel"], ["l", "and"], [" a", "dd"], ["ust", "rated"], [" ph", "one"], ["or", "k"], [" S", "omet"], [" he", "l"], [" cl", "ay"], ["ur", "se"], ["in", "ation"], ["i", "pp"], [" kne", "e"], [" pretend", "ed"], [" mark", "et"], [" gar", "age"], ["g", "y"], [" g", "em"], [" stu", "dy"], [" tw", "irl"], [" And", "y"], ["umb", "led"], [" strong", "er"], [" snack", "s"], [" disappo", "inted"], [" f", "ather"], [" m", "ach"], [" b", "ra"], [" of", "ten"], [" des", "k"], ["u", "p"], [" cr", "ack"], [" ben", "ch"], [" k", "ing"], [" rel", "ax"], [" escap", "e"], [" che", "w"], [" em", "pt"], [" fix", "ed"], ["us", "hed"], [" mo", "d"], ["ol", "a"], [" is", "land"], [" B", "r"], [" fr", "ustrated"], ["im", "p"], [" one", "s"], [" sa", "ved"], [" h", "oney"], [" re", "g"], ["m", "o"], ["ell", "a"], ["u", "b"], [" ro", "ad"], [" empt", "y"], [" mess", "y"], [" gigg", "led"], ["n", "ie"], [" ar", "row"], [" dir", "t"], [" tom", "orrow"], [" bright", "ly"], [" s", "il"], [" underst", "ood"], [" rec", "ord"], [" b", "rill"], [" brill", "i"], [" brilli", "ant"], [" r", "ing"], [" sol", "ve"], [" st", "uff"], [" b", "and"], [" o", "ven"], [" de", "ad"], [" med", "ic"], [" medic", "ine"], ["an", "a"], ["itten", "s"], [" t", "ick"], [" love", "s"], [" rel", "ia"], [" relia", "ble"], [" eas", "y"], ["bo", "x"], [" e", "xt"], [" on", "ce"], ["W", "ell"], [" t", "ask"], ["or", "ge"], [" dist", "ance"], [" manag", "ed"], [" S", "usie"], [" take", "s"], [" p", "in"], [" a", "w"], [" le", "ad"], [" sh", "ake"], [" p", "enny"], [" sl", "id"], [" impre", "ssed"], ["air", "s"], ["is", "hing"], [" c", "omet"], [" so", "ck"], [" pa", "ssed"], [" v", "i"], [" call", "ing"], [" wh", "is"], ["mo", "st"], [" dec", "or"], [" go", "ld"], [" cho", "col"], [" puzz", "le"], [" ca", "bin"], [" me", "ant"], [" gi", "ving"], [" sp", "read"], [" D", "on"], [" she", "lf"], [" ob", "ed"], [" L", "ittle"], [" ", "ed"], [" a", "dded"], [" delight", "ed"], [" lea", "f"], ["at", "ely"], [" gra", "nd"], ["he", "never"], [" cont", "ent"], [" tur", "key"], ["y", "ear"], ["w", "ork"], [" whe", "el"], [" A", "lice"], [" f", "il"], [" or", "d"], [" su", "pp"], [" de", "st"], ["oph", "ie"], [" al", "most"], [" st", "ream"], [" ba", "ld"], ["ct", "us"], ["B", "e"], [" p", "op"], [" r", "id"], [" ", "O"], [" kn", "ocked"], [" celebr", "ate"], [" a", "v"], [" sne", "e"], [" al", "re"], [" alre", "ady"], [" fav", "our"], [" fe", "ar"], [" t", "ie"], [" fr", "own"], [" ", "icy"], ["j", "ect"], [" obed", "ient"], [" stone", "s"], ["M", "ary"], [" duck", "s"], [" ta", "ught"], [" ac", "cept"], [" inc", "red"], [" advent", "ur"], [" adventur", "ous"], [" disco", "vered"], [" s", "ight"], [" mo", "ving"], [" ha", "ng"], ["un", "k"], [" o", "k"], [" pick", "ing"], [" sc", "r"], ["ur", "ing"], ["ent", "ion"], ["itt", "er"], [" cr", "own"], ["in", "a"], [" cook", "ie"], [" accident", "ally"], ["u", "z"], [" lo", "ck"], [" bo", "ard"], [" ca", "ctus"], [" The", "ir"], [" te", "am"], [" do", "lp"], [" sh", "ar"], [" shar", "p"], ["ct", "op"], ["ctop", "us"], [" sp", "end"], [" fl", "uffy"], [" cle", "ar"], [" li", "ve"], [" ple", "ased"], [" ext", "ra"], [" favour", "ite"], [" tid", "y"], [" happen", "ing"], [" your", "self"], [" W", "henever"], ["A", "lice"], ["at", "s"], [" y", "og"], [" splas", "hed"], [" quest", "ions"], [" terri", "ble"], [" gu", "ard"], [" chocol", "ate"], [" P", "olly"], [" ma", "ze"], [" sh", "ip"], [" c", "her"], [" o", "ctopus"], [" pol", "ite"], ["S", "ue"], [" gr", "ay"], [" Gra", "ce"], [" d", "izzy"], ["re", "en"], [" eag", "er"], [" st", "ra"], ["ll", "a"], ["bo", "dy"], [" bar", "ber"], [" cl", "umsy"], [" com", "fortable"], [" excited", "ly"], [" craw", "led"], [" s", "ighed"], [" P", "apa"], ["os", "aur"], ["u", "ne"], [" po", "or"], [" ab", "ove"], [" pl", "ate"], ["ber", "ry"], [" to", "ug"], ["im", "ed"], ["as", "ing"], ["at", "ure"], [" se", "ed"], [" din", "osaur"], [" incred", "ible"], [" sk", "ip"], [" p", "ir"], ["w", "ards"], [" stick", "s"], ["an", "ged"], [" p", "ri"], [" ", "ind"], [" fr", "idge"], [" land", "ed"], [" gr", "umpy"], [" vi", "ol"], [" ra", "ven"], [" h", "ive"], [" sort", "s"], [" walk", "s"], [" ch", "ar"], ["e", "orge"], [" ta", "pe"], [" mar", "ch"], [" S", "m"], [" butt", "on"], [" sh", "aring"], [" sh", "one"], [" A", "t"], [" w", "ore"], [" p", "our"], ["p", "ack"], [" re", "fused"], ["sp", "eci"], ["speci", "ally"], [" st", "umbled"], [" la", "zy"], [" expl", "ored"], ["p", "ort"], ["or", "y"], [" face", "s"], [" disco", "ver"], ["z", "ed"], [" L", "e"], [" lo", "g"], ["il", "t"], [" viol", "in"], [" j", "am"], [" r", "ich"], [" squ", "are"], ["c", "y"], [" pill", "ow"], [" m", "ic"], [" lo", "ad"], [" dolp", "hin"], [" To", "day"], [" wa", "ves"], [" bar", "ked"], [" tw", "ist"], [" B", "l"], [" W", "hy"], ["B", "illy"], [" delic", "ate"], [" us", "ing"], [" k", "itty"], [" e", "specially"], [" l", "ying"], [" pers", "ist"], [" H", "ow"], ["ot", "e"], [" kind", "s"], [" n", "umber"], [" fight", "ing"], [" T", "eddy"], [" b", "oring"], [" dr", "um"], [" ", "er"], ["as", "er"], [" might", "y"], [" e", "ld"], [" j", "elly"], [" Gra", "ndpa"], [" R", "e"], [" L", "isa"], [" A", "lex"], [" k", "ay"], [" l", "ine"], ["e", "ver"], ["in", "ess"], [" sound", "ed"], ["!\"", "."], [" show", "ing"], [" sandw", "ich"], [" prin", "t"], [" cho", "se"], [" se", "ll"], [" pack", "ed"], [" fing", "er"], [" circ", "les"], [" squ", "ee"], ["l", "ies"], [" che", "ck"], [" jo", "g"], [" har", "m"], [" fe", "ed"], [" r", "oof"], [" sk", "in"], [" Somet", "imes"], [" s", "y"], ["l", "ive"], [" Sm", "ith"], [" ra", "ced"], [" qu", "een"], [" str", "ing"], ["t", "ime"], [" th", "ose"], [" h", "um"], ["J", "ill"], [" cl", "oth"], [" search", "ing"], [" toug", "h"], ["h", "a"], [" exc", "la"], [" excla", "imed"], [" poin", "ting"], [" pain", "ted"], [" wor", "king"], [" li", "z"], [" E", "ventually"], [" wr", "ote"], [" gl", "ow"], [" ru", "de"], [" sp", "ace"], [" le", "ash"], [" pract", "ice"], [" wall", "s"], ["en", "ry"], [" C", "l"], [" r", "ough"], ["u", "nd"], [" tri", "ck"], [" tear", "s"], ["i", "pper"], ["if", "f"], [" cu", "sh"], [" c", "art"], ["er", "a"], [" z", "oo"], [" forg", "ive"], [" dog", "s"], [" be", "es"], ["os", "ie"], ["f", "ic"], ["sel", "ves"], [" bo", "dy"], [" spr", "ay"], [" e", "ars"], [" dr", "ank"], ["an", "ger"], [" gra", "ce"], [" ash", "amed"], ["a", "w"], [" w", "is"], [" r", "ushed"], [" belong", "ed"], ["ad", "i"], [" ed", "ge"], [" persist", "ent"], ["H", "ow"], [" t", "imes"], [" say", "ing"], ["r", "ank"], [" exp", "ens"], [" expens", "ive"], [" sug", "gest"], [" N", "o"], ["or", "ant"], [" c", "amp"], [" m", "ama"], [" give", "s"], ["ne", "l"], ["ip", "e"], [" er", "aser"], ["y", "al"], [" sn", "ake"], [" ot", "ter"], [" dif", "fic"], [" cra", "b"], [" bott", "om"], [" success", "ful"], [" ch", "ain"], [" gu", "il"], [" guil", "ty"], [" gl", "ue"], ["he", "ad"], [" shop", "keeper"], [" imag", "ined"], ["W", "ho"], [" ru", "ined"], [" ey", "e"], [" neighb", "our"], ["al", "ed"], [" set", "t"], ["ra", "ge"], [" prin", "ce"], [" lea", "ving"], [" f", "ool"], [" fool", "ish"], ["one", "st"], [" use", "ful"], [" th", "ick"], [" w", "itch"], [" cray", "on"], ["re", "nder"], ["ag", "es"], [" lo", "yal"], [" c", "ross"], [" nut", "s"], [" h", "ipp"], [" pe", "ar"], [" pain", "ting"], [" diffic", "ult"], ["M", "e"], [" lear", "ning"], [" flut", "e"], [" mix", "ed"], [" see", "m"], [" val", "u"], [" co", "at"], ["i", "pping"], [" p", "ay"], [" wa", "ke"], [" loud", "ly"], [" pir", "ate"], [" it", "self"], [" ru", "bb"], [" gr", "own"], ["l", "oo"], [" d", "ull"], [" ign", "orant"], [" h", "onest"], [" pu", "p"], [" ser", "ious"], [" sur", "render"], [" te", "a"], [" tun", "nel"], ["ill", "ie"], [" sug", "ar"], [" hipp", "o"], [" eld", "erly"], [" truck", "s"], [" mar", "ble"], [" play", "er"], [" pr", "ay"], [" kay", "ak"], [" small", "er"], [" wh", "ale"], [" bl", "oom"], [" bus", "hes"], [" valu", "able"], [" de", "er"], ["ie", "st"], ["c", "om"], [" kind", "ness"], [" kn", "ife"], [" enjoy", "ing"], [" comp", "ass"], [" liz", "ard"], [" re", "ve"], [" ju", "icy"], [" b", "ored"], [" thin", "king"], [" bath", "room"], [" perf", "orm"], [" p", "urse"], [" f", "ountain"], [" tow", "el"], [" for", "k"], [" t", "ank"], [" t", "ent"], [" R", "osie"], ["l", "ower"], [" br", "anc"], [" branc", "hes"], [" spe", "ed"], [" shap", "e"], ["k", "in"], [" war", "ned"], ["y", "er"], [" en", "g"], [" G", "o"], [" m", "ay"], [" un", "i"], [" uni", "qu"], [" uniqu", "e"], [" ob", "ject"], [" beaut", "y"], [" h", "urry"], ["urt", "le"], [" par", "ade"], ["d", "ge"], [" ru", "b"], [" go", "es"], [" m", "ap"], [" str", "anger"], ["St", "op"], ["ra", "g"], [" reg", "ular"], [" S", "ophie"], [" char", "ming"], [" pack", "age"], [" sail", "or"], ["on", "y"], [" bubble", "s"], [" boun", "ce"], [" so", "ap"], [" mo", "v"], [" fl", "ash"], [" draw", "ing"], [" gra", "ndpa"], [" ca", "ge"], ["f", "fe"], [" sy", "mb"], [" symb", "ol"], [" mis", "sed"], [" g", "un"], [" ha", "m"], [" way", "s"], [" law", "yer"], [" no", "sy"], [" leg", "s"], [" adm", "ired"], [" gas", "ped"], [" met", "al"], [" fr", "ame"], [" or", "ig"], [" orig", "in"], [" origin", "al"], [" pe", "e"], [" stu", "bb"], [" stubb", "orn"], [" wa", "nd"], [" off", "ered"], [" qu", "ite"], [" remind", "ed"], [" tr", "unk"], [" t", "urtle"], ["an", "ic"], [" saf", "ely"], [" A", "l"], [" cou", "rage"], [" mach", "ine"], [" c", "urt"], [" curt", "ain"], [" bu", "ilt"], [" cand", "le"], [" b", "itter"], [" boy", "s"], [" inv", "ited"], [" v", "ase"], [" t", "ut"], [" d", "ish"], [" To", "by"], [" dre", "w"], [" g", "ho"], [" gho", "st"], [" box", "es"], [" smo", "ke"], [" ru", "bbed"], ["he", "art"], ["v", "ice"], [" adm", "ire"], ["L", "ittle"], ["or", "a"], [" s", "udden"], ["ache", "l"], [" pain", "ter"], ["The", "ir"], [" cheer", "ful"], ["it", "al"], ["ac", "ed"], [" big", "gest"], [" ra", "ft"], [" suggest", "ed"], ["c", "u"], [" ch", "u"], [" chu", "bby"], ["ch", "ie"], [" tell", "ing"], ["ol", "og"], [" clo", "ck"], [" r", "ice"], ["ir", "it"], [" wo", "lf"], [" comp", "et"], [" compet", "it"], [" trave", "l"], [" fruit", "s"], ["uz", "zy"], [" tut", "or"], [" M", "ittens"], [" off", "ice"], ["b", "led"], ["an", "gle"], [" sec", "ond"], [" pen", "c"], [" penc", "il"], ["n", "ot"], [" me", "as"], [" re", "p"], [" sweet", "heart"], [" does", "n"], [" pre", "p"], [" m", "ir"], [" again", "st"], [" P", "lease"], [" un", "com"], [" uncom", "fortable"], [" neck", "l"], [" neckl", "ace"], [" we", "ird"], [" compass", "ion"], ["S", "ee"], [" ho", "sp"], [" hosp", "ital"], [" bo", "ss"], [" kn", "ob"], [" cir", "cle"], [" eng", "ine"], ["oom", "y"], [" Every", "thing"], [" ind", "epend"], [" independ", "ent"], [" organ", "ized"], [" tw", "ig"], [" hel", "ic"], [" helic", "op"], [" helicop", "ter"], [" t", "ummy"], [" ap", "olog"], [" lift", "ed"], [" fam", "ous"], [" bel", "t"], ["c", "hes"], [" re", "sc"], [" b", "orrow"], [" su", "b"], ["c", "an"], [" ro", "de"], [" ber", "ries"], [" c", "one"], [" ro", "ar"], [" put", "s"], [" he", "ars"], [" re", "pe"], [" comp", "ut"], [" p", "it"], [" Bl", "ue"], [" o", "y"], ["bb", "ie"], [" f", "u"], ["oo", "p"], [" po", "le"], [" wa", "gged"], [" can", "not"], [" E", "lly"], [" pe", "ek"], [" W", "hile"], ["sel", "y"], [" ex", "per"], [" ad", "vice"], [" gl", "ass"], ["r", "or"], [" wip", "ed"], ["is", "sed"], [" pee", "ked"], [" re", "f"], ["in", "ce"], [" sa", "uce"], [" light", "s"], ["in", "ary"], [" c", "ri"], [" sh", "ut"], [" J", "ames"], ["in", "es"], [" te", "eth"], [" le", "an"], [" bar", "n"], [" di", "am"], [" diam", "ond"], ["ugg", "led"], [" un", "k"], [" j", "et"], ["ir", "on"], [" no", "isy"], ["ack", "et"], [" Br", "own"], ["v", "et"], [" com", "pl"], [" sh", "ark"], [" tr", "op"], [" sn", "iff"], [" lo", "cked"], [" kn", "ight"], [" l", "amp"], [" pat", "ch"], ["is", "on"], [" oy", "ster"], ["I", "f"], [" s", "na"], [" m", "aybe"], ["el", "p"], [" spo", "ke"], [" sp", "un"], [" clo", "sely"], [" I", "f"], [" a", "head"], ["ent", "s"], [" ", " "], [" al", "ert"], [" get", "s"], [" k", "issed"], [" dream", "ing"], [" had", "n"], [" twirl", "ed"], ["h", "ood"], [" me", "m"], [" ro", "se"], [" find", "ing"], [" bal", "ance"], ["b", "or"], [" need", "s"], [" mo", "le"], [" imp", "at"], [" carrot", "s"], [" chick", "en"], [" me", "al"], [" T", "ed"], [" re", "sist"], [" proud", "ly"], [" quest", "ion"], [" butterf", "lies"], [" sp", "irit"], [" too", "l"], [" Le", "o"], [" le", "ak"], ["a", "by"], [" j", "acket"], ["ot", "s"], ["is", "ion"], [" spin", "ning"], ["n", "it"], [" Joe", "y"], [" spark", "led"], [" tun", "a"], [" treasure", "s"], [" B", "et"], [" fi", "er"], [" fier", "ce"], [" flash", "light"], [" po", "ppy"], [" Mar", "ia"], [" fu", "el"], [" dri", "ving"], [" F", "in"], [" tri", "angle"], [" celebr", "ated"], [" dream", "s"], [" cl", "ap"], ["H", "elp"], ["c", "ream"], [" f", "ake"], [" f", "re"], [" en", "er"], ["d", "ed"], [" ch", "oose"], [" sad", "ly"], [" bright", "er"], [" hun", "g"], [" end", "ing"], [" play", "ful"], [" F", "rank"], [" u", "r"], [" tell", "s"], [" pract", "iced"], [" ch", "anged"], [" impat", "ient"], [" ch", "ange"], [" sl", "ipped"], [" P", "e"], [" coo", "king"], [" ear", "ly"], [" ca", "ne"], [" f", "ishing"], [" t", "ied"], [" jo", "ined"], ["t", "i"], [" b", "ark"], [" fur", "nit"], [" furnit", "ure"], ["n", "own"], [" cra", "ne"], [" la", "und"], [" laund", "ry"], [" mov", "ie"], ["i", "v"], [" trop", "hy"], [" mo", "der"], [" moder", "n"], [" co", "co"], [" coco", "a"], [" light", "ning"], [" rest", "aur"], [" restaur", "ant"], [" cl", "own"], [" pe", "pper"], [" sw", "an"], [" D", "ucky"], [" mu", "sh"], [" mush", "room"], [" ch", "ase"], [" clo", "set"], ["al", "k"], [" fre", "sh"], [" fr", "ight"], [" wra", "pped"], [" car", "p"], [" carp", "et"], [" mir", "ror"], [" per", "m"], [" L", "ola"], [" hard", "er"], [" ", "U"], [" m", "ask"], [" har", "bor"], [" r", "at"], ["umb", "ers"], [" hair", "y"], [" v", "ine"], [" n", "orm"], ["ur", "ch"], ["ic", "t"], [" so", "ld"], [" feather", "s"], [" sa", "l"], [" whis", "p"], [" whisp", "ered"], ["uck", "ed"], [" sho", "ot"], [" G", "eorge"], ["y", "m"], [" sc", "iss"], [" sciss", "ors"], [" sp", "ill"], [" sc", "o"], [" sco", "ot"], [" hor", "n"], [" en", "v"], [" trou", "bled"], [" them", "selves"], ["i", "ence"], [" lear", "nt"], [" v", "ie"], [" vie", "w"], [" gi", "ven"], [" hand", "ed"], [" care", "less"], ["in", "ked"], [" all", "owed"], [" dis", "ag"], [" f", "urt"], [" sh", "aking"], ["art", "h"], ["ug", "ged"], [" grow", "ing"], [" break", "f"], [" breakf", "ast"], [" pl", "aced"], [" pa", "le"], [" l", "ed"], [" happ", "iness"], [" mis", "er"], ["ig", "gle"], [" shr", "imp"], [" pa", "id"], [" n", "umbers"], [" clean", "ed"], [" comp", "let"], [" dec", "ide"], [" H", "enry"], [" colour", "s"], [" ra", "re"], [" att", "ic"], [" un", "pack"], [" vis", "ited"], [" foot", "ball"], [" dest", "ro"], [" bee", "f"], [" f", "rag"], [" B", "ella"], [" sub", "way"], ["he", "t"], [" unk", "nown"], [" harm", "less"], ["sp", "ap"], [" z", "eb"], [" zeb", "ra"], ["can", "o"], [" cush", "ion"], [" g", "ym"], [" b", "an"], ["S", "orry"], [" th", "read"], [" her", "o"], ["ation", "s"], [" R", "o"], [" Re", "my"], [" ", "iron"], [" M", "ark"], [" class", "room"], [" thought", "ful"], [" wis", "hes"], [" t", "em"], [" ste", "al"], [" mod", "est"], ["om", "ed"], [" n", "ature"], [" furt", "her"], [" p", "ed"], [" dr", "op"], ["au", "l"], ["en", "se"], [" ", "\u2013"], [" ar", "g"], [" mail", "box"], [" poin", "t"], [" miser", "able"], [" f", "at"], [" butt", "ons"], [" D", "ave"], ["P", "eter"], [" norm", "al"], [" spl", "it"], ["ie", "f"], [" un", "l"], [" a", "x"], [" ax", "e"], [" destro", "y"], [" st", "ri"], [" ord", "inary"], [" we", "ather"], [" do", "ve"], [" cat", "s"], [" wr", "iting"], [" sp", "ag"], [" spag", "het"], [" spaghet", "ti"], ["ss", "ible"], [" new", "spap"], [" vo", "l"], [" vol", "cano"], [" kn", "ot"], [" ch", "urch"], [" egg", "s"], [" ch", "am"], [" cham", "ber"], [" comput", "er"], ["R", "e"], [" pig", "e"], [" need", "le"], [" spr", "ing"], [" hurt", "s"], [" har", "sh"], [" d", "ug"], [" ag", "ree"], [" ra", "z"], [" raz", "or"], ["g", "n"], [" ham", "mer"], [" grace", "ful"], [" sc", "reen"], ["ar", "lie"], [" stra", "w"], [" bl", "inked"], [" fright", "ened"], [" ch", "asing"], [" b", "ent"], [" m", "elt"], [" att", "ract"], [" retur", "n"], [" stre", "ng"], [" streng", "th"], ["\"", ","], [" pat", "ter"], [" boss", "y"], [" swing", "ing"], [" g", "ate"], [" co", "ver"], [" minut", "e"], [" dis", "cu"], [" sk", "irt"], [" a", "chie"], [" st", "airs"], [" h", "ay"], [" h", "unt"], [" tr", "ade"], [" sk", "ill"], [" en", "c"], [" li", "br"], [" st", "ared"], [" frag", "ile"], [" squ", "ash"], [" dream", "ed"], [" joke", "s"], [" cla", "pping"], [" f", "our"], [" m", "ill"], ["n", "ight"], [" cup", "board"], [" en", "vel"], [" com", "fort"], [" ve", "l"], [" vel", "vet"], [" fa", "ctor"], [" factor", "y"], [" cor", "n"], ["at", "ter"], [" nod", "s"], [" fire", "work"], [" ber", "ry"], [" ve", "h"], [" veh", "ic"], [" po", "ison"], [" o", "live"], [" c", "ree"], [" jo", "lly"], ["ad", "dy"], [" be", "g"], [" dis", "g"], [" re", "co"], [" y", "et"], ["uc", "et"], [" pus", "hing"], ["C", "h"], [" should", "n"], ["a", "pped"], [" s", "um"], [" imp", "ro"], ["re", "s"], [" e", "arth"], ["Every", "one"], [" m", "ild"], ["an", "s"], [" patter", "n"], [" fa", "sc"], [" br", "idge"], [" sh", "ine"], ["s", "it"], [" hand", "le"], [" even", "ing"], ["ve", "st"], [" th", "ief"], [" attract", "ive"], [" frown", "ed"], [" li", "cked"], [" j", "ail"], ["ant", "s"], [" p", "il"], [" pil", "ot"], [" cu", "be"], [" loud", "er"], [" c", "ity"], ["ast", "ic"], [" exam", "ine"], [" suc", "ce"], [" succe", "ed"], [" gr", "in"], [" st", "ation"], [" was", "hed"], [" c", "ell"], ["le", "v"], ["e", "ve"], ["g", "ie"], [" env", "ious"], [" window", "s"], [" disg", "ust"], ["'", "."], [" stret", "ch"], [" s", "ize"], [" l", "end"], ["ig", "z"], ["igz", "ag"], [" p", "ump"], [" v", "end"], [" balloon", "s"], [" friends", "h"], [" friendsh", "ip"], [" lo", "ll"], [" sum", "mer"], [" sil", "ver"], [" z", "ip"], [" M", "y"], [" old", "er"], [" start", "ing"], [" be", "et"], [" gl", "oomy"], [" meet", "ing"], [" creat", "e"], [" M", "ay"], [" fil", "thy"], [" count", "ing"], [" sw", "amp"], [" me", "ch"], [" mech", "anic"], [" blow", "ing"], [" sh", "ocked"], [" end", "ed"], [" sweet", "ie"], [" att", "ention"], [" en", "orm"], [" enorm", "ous"], [" libr", "ary"], [" dist", "ant"], [" b", "ump"], [" la", "ser"], [" spark", "ling"], [" gold", "en"], [" b", "ake"], ["u", "zz"], [" the", "ater"], ["s", "es"], [" Jo", "sh"], [" some", "where"], [" black", "board"], [" ch", "im"], [" chim", "ney"], ["n", "ow"], [" tri", "es"], [" le", "op"], [" leop", "ard"], [" a", "unt"], [" bat", "ter"], [" cl", "ub"], [" t", "ire"], ["ar", "ry"], [" past", "el"], [" pige", "on"], [" reco", "gn"], [" fa", "ucet"], [" vend", "or"], [" rep", "air"], [" v", "ide"], [" ener", "gy"], ["J", "im"], [" loll", "ip"], [" lollip", "op"], [" clean", "ing"], [" ru", "les"], [" quiet", "ly"], [" in", "sist"], [" any", "where"], [" compassion", "ate"], [" fasc", "in"], [" kick", "ed"], [" b", "ase"], ["s", "ing"], [" g", "iggle"], [" D", "anny"], [" W", "ould"], [" ch", "irp"], [" des", "ign"], ["J", "enny"], ["Gra", "ndma"], ["uc", "t"], ["er", "y"], [" c", "udd"], [" flut", "ter"], [" head", "ed"], [" pe", "bble"], [" enc", "ou"], [" read", "ing"], [" flo", "ated"], [" tra", "sh"], [" st", "amp"], [" rid", "ing"], [" y", "aw"], [" ob", "ser"], [" h", "ook"], [" T", "ony"], [" c", "ro"], [" ho", "l"], [" hol", "id"], [" holid", "ay"], ["un", "g"], [" boun", "ced"], [" M", "illie"], [" envel", "ope"], [" com", "b"], [" st", "at"], [" stat", "ue"], [" mix", "er"], [" ban", "ana"], [" pick", "s"], [" newspap", "er"], [" ve", "il"], [" per", "fu"], [" perfu", "me"], ["at", "o"], [" p", "ants"], [" cree", "k"], [" rubb", "er"], [" fold", "er"], [" sp", "ort"], [" g", "oose"], [" roll", "ing"], [" h", "oop"], [" del", "ay"], ["ink", "y"], ["u", "sed"], [" b", "et"], [" count", "ed"], [" R", "achel"], [" aw", "e"], ["p", "id"], [" ref", "res"], [" seed", "s"], [" reve", "aled"], [" pro", "v"], [" beet", "le"], [" re", "ver"], [" inc", "l"], [" incl", "u"], [" climb", "ing"], ["re", "ss"], [" ", "OK"], [" pri", "ze"], ["ri", "c"], ["f", "a"], ["D", "aisy"], ["Em", "ma"], [" stret", "ched"], [" she", "ep"], [" imag", "ination"], [" v", "an"], [" p", "ad"], [" bag", "s"], [" jo", "gged"], [" relax", "ed"], [" sa", "us"], ["c", "ast"], ["se", "um"], [" n", "ail"], [" organ", "ize"], [" field", "s"], ["z", "ing"], [" s", "uff"], [" y", "ach"], [" yach", "t"], [" L", "illy"], ["r", "on"], ["S", "p"], [" vehic", "le"], [" whe", "at"], ["all", "ey"], [" scoot", "er"], [" J", "u"], [" co", "ffe"], [" coffe", "e"], [" yog", "urt"], [" p", "ipe"], [" disgust", "ing"], ["ec", "ause"], [" se", "p"], [" sep", "ar"], [" bel", "ow"], ["A", "re"], [" is", "n"], [" perfect", "ly"], [" p", "ow"], ["ree", "ze"], [" count", "ry"], [" kn", "own"], [" L", "ook"], [" stir", "red"], [" sur", "round"], ["un", "ately"], [" int", "ell"], [" intell", "ig"], ["\n", " "], [" mess", "age"], [" shout", "ing"], [" p", "or"], [" flo", "ating"], [" d", "ig"], [" r", "ug"], [" wander", "ed"], [" co", "ins"], [" nice", "ly"], ["al", "ph"], [" sand", "cast"], [" stu", "pid"], [" mu", "seum"], [" del", "iver"], [" cra", "zy"], [" av", "o"], [" l", "ow"], ["sc", "ope"], [" tr", "ay"], ["now", "y"], ["le", "nd"], [" sc", "ale"], [" lemon", "ade"], ["Sp", "ot"], ["gg", "ing"], [" boun", "cing"], [" Ch", "irp"], ["f", "lower"], [" cher", "ry"], [" expl", "ain"], [" flo", "at"], [" f", "an"], [" ", "Z"], [" su", "per"], [" re", "ward"], [" av", "ail"], [" avail", "able"], ["A", "n"], [" stu", "d"], ["ur", "ried"], ["a", "b"], [" disag", "reed"], [" soft", "ly"], [" we", "al"], [" sun", "set"], [" c", "ries"], [" mu", "sc"], [" h", "ut"], [" S", "h"], [" amaz", "em"], [" amazem", "ent"], [" so", "ar"], [" help", "less"], [" intellig", "ent"], [" eag", "erly"], [" lean", "ed"], [" after", "n"], [" aftern", "oon"], [" w", "ire"], [" myster", "y"], [" l", "id"], ["Thank", "s"], [" re", "qu"], [" on", "ion"], ["M", "r"], [" T", "r"], [" skill", "s"], [" t", "ucked"], [" pretend", "ing"], [" bu", "zz"], [" listen", "ing"], [" gift", "ed"], [" scr", "at"], ["c", "i"], [" ar", "t"], [" splas", "hing"], ["oo", "ped"], [" spill", "ed"], [" lo", "se"], [" p", "ian"], [" pian", "o"], [" W", "here"], [" compl", "ain"], [" mic", "ro"], [" micro", "scope"], [" sc", "atter"], [" sk", "ipping"], [" S", "nowy"], [" peanut", "s"], ["ill", "a"], [" sw", "itch"], [" P", "at"], [" z", "ipper"]]}